{"[UNK]":0,"[CLS]":1,"[SEP]":2,"[PAD]":3,"[MASK]":4,"!":5,"\"":6,"#":7,"$":8,"%":9,"&":10,"'":11,"(":12,")":13,"*":14,"+":15,",":16,"-":17,".":18,"/":19,"0":20,"1":21,"2":22,"3":23,"4":24,"5":25,"6":26,"7":27,"8":28,"9":29,":":30,";":31,"<":32,"=":33,">":34,"?":35,"@":36,"A":37,"B":38,"C":39,"D":40,"E":41,"F":42,"G":43,"H":44,"I":45,"J":46,"K":47,"L":48,"M":49,"N":50,"O":51,"P":52,"Q":53,"R":54,"S":55,"T":56,"U":57,"V":58,"W":59,"X":60,"Y":61,"Z":62,"[":63,"\\":64,"]":65,"^":66,"_":67,"`":68,"a":69,"b":70,"c":71,"d":72,"e":73,"f":74,"g":75,"h":76,"i":77,"j":78,"k":79,"l":80,"m":81,"n":82,"o":83,"p":84,"q":85,"r":86,"s":87,"t":88,"u":89,"v":90,"w":91,"x":92,"y":93,"z":94,"{":95,"|":96,"}":97,"~":98,"¡":99,"¢":100,"£":101,"¤":102,"¥":103,"¦":104,"§":105,"¨":106,"©":107,"ª":108,"«":109,"¬":110,"®":111,"¯":112,"°":113,"±":114,"²":115,"³":116,"´":117,"µ":118,"¶":119,"·":120,"¸":121,"¹":122,"º":123,"»":124,"¼":125,"½":126,"¾":127,"¿":128,"À":129,"Á":130,"Â":131,"Ã":132,"Ä":133,"Å":134,"Æ":135,"Ç":136,"È":137,"É":138,"Ê":139,"Ë":140,"Ì":141,"Í":142,"Î":143,"Ï":144,"Ð":145,"Ñ":146,"Ò":147,"Ó":148,"Ô":149,"Õ":150,"Ö":151,"×":152,"Ø":153,"Ù":154,"Ú":155,"Û":156,"Ü":157,"Ý":158,"Þ":159,"ß":160,"à":161,"á":162,"â":163,"ã":164,"ä":165,"å":166,"æ":167,"ç":168,"è":169,"é":170,"ê":171,"ë":172,"ì":173,"í":174,"î":175,"ï":176,"ð":177,"ñ":178,"ò":179,"ó":180,"ô":181,"õ":182,"ö":183,"÷":184,"ø":185,"ù":186,"ú":187,"û":188,"ü":189,"ý":190,"þ":191,"ÿ":192,"Ā":193,"ā":194,"Ă":195,"ă":196,"Ą":197,"ą":198,"Ć":199,"ć":200,"Ĉ":201,"ĉ":202,"Ċ":203,"ċ":204,"Č":205,"č":206,"Ď":207,"ď":208,"Đ":209,"đ":210,"Ē":211,"ē":212,"Ĕ":213,"ĕ":214,"Ė":215,"ė":216,"Ę":217,"ę":218,"Ě":219,"ě":220,"Ĝ":221,"ĝ":222,"Ğ":223,"ğ":224,"Ġ":225,"ġ":226,"Ģ":227,"ģ":228,"Ĥ":229,"ĥ":230,"Ħ":231,"ħ":232,"Ĩ":233,"ĩ":234,"Ī":235,"ī":236,"Ĭ":237,"ĭ":238,"Į":239,"į":240,"İ":241,"ı":242,"Ĳ":243,"ĳ":244,"Ĵ":245,"ĵ":246,"Ķ":247,"ķ":248,"ĸ":249,"Ĺ":250,"ĺ":251,"Ļ":252,"ļ":253,"Ľ":254,"ľ":255,"Ŀ":256,"ŀ":257,"Ł":258,"ł":259,"Ń":260,"á»":261,"áº":262,"Ġt":263,"ng":264,"Ġc":265,"nh":266,"Ġm":267,"Ãł":268,"Ã¡":269,"ĠÄ":270,"ĠÄĳ":271,"Ġl":272,"hÃ":273,"Ġk":274,"Æ°":275,"Ġv":276,"Ġnh":277,"Ġch":278,"Ġs":279,"áº¥":280,"Ġn":281,"Ġh":282,"Ġg":283,"Ġth":284,"Ġb":285,"áº¡":286,"Ġp":287,"áº£":288,"Æ°á»":289,"iá»":290,"Ġr":291,"Ġd":292,"Ã³":293,"hÃ¬":294,"Æ¡":295,"Ã¡y":296,"Ãª":297,"áº¿":298,"Ã¬":299,"ua":300,"Ã¢":301,"Ġtr":302,"áº¥t":303,"Ġng":304,"Ġtá»":305,"am":306,"in":307,"Æ°á»£":308,"..":309,"Ġkh":310,"áº§":311,"Ãªn":312,"ĠÄĳá»":313,"Ġvá»":314,"áºŃ":315,"Ľi":316,"Ã¬nh":317,"ĠthÃ¬":318,"Ġmá»":319,"hÃ´":320,"ĠmÃ¡y":321,"ame":322,"Ġmua":323,"iá»ĩ":324,"Ġx":325,"Ġq":326,"ĠmÃł":327,"Ġgi":328,"Æ¡i":329,"Ãły":330,"Ġá»":331,"á»¥":332,"Ãłi":333,"Ġráº¥t":334,"Ġph":335,"Ġpin":336,"ĠlÃł":337,"Ã¹":338,"Ġ1":339,"hÃ´ng":340,"áº¯":341,"ĠnhÆ°":342,"ĠcÃ³":343,"ay":344,"áº¡i":345,"Ġqu":346,"hÃ¬nh":347,"Ġtá»ĳ":348,"ĠhÃ¬nh":349,"ĠkhÃ´ng":350,"á»ĭ":351,"Ã¹ng":352,"©ng":353,"Ã²":354,"áº¥y":355,"Æ°á»£c":356,"iáº¿":357,"Ã¢u":358,"ĠÄĳÆ°á»£c":359,"Ġtá»ĳt":360,"Ġgame":361,"Ã´":362,"ĠvÃł":363,"áº¹":364,"ao":365,"anh":366,"ĠgiÃ¡":367,"Ġo":368,"ĠnÃ³":369,"on":370,"ĠdÃ¹ng":371,"Ã¢n":372,"Ã¡c":373,"ung":374,"Ġko":375,"iá»ģ":376,"áº§n":377,"áº¡c":378,"iÃªn":379,"Ġbá»ĭ":380,"áº¹p":381,"Ã¡ng":382,"ĠC":383,"Ġchá»":384,"ĠÄĳáº¹p":385,"ĠnÃły":386,"ĠchÆ¡i":387,"Æ°á»£t":388,"ĠquÃ¡":389,"Ġok":390,"Ġcá»":391,"Ġcáº£":392,"MÃ¡y":393,"ong":394,"Ġ.":395,"ĠmÃ¬nh":396,"Ġ,":397,"áº§m":398,"ĠmÆ°á»£t":399,"Ġ2":400,"Ġnhanh":401,"ķn":402,"Ġhá»":403,"Ġá»ķn":404,"Ġsá»":405,"Ġthá»":406,"áº£n":407,"ra":408,"ĠnhÆ°ng":409,"Ġmá»Ľi":410,"©m":411,"Ġtu":412,"Ġlá»":413,"ĠcÅ":414,"Ġláº¡i":415,"Ġtháº¥y":416,"Ãº":417,"áºŃt":418,"iá»ĩn":419,"Ŀi":420,"amera":421,"ĠngÃły":422,"Æ¡n":423,"ĠN":424,"Ã²n":425,"áº£i":426,"á»¥p":427,"ĠcÅ©ng":428,"Ġsáº¡c":429,"įi":430,"Ĺi":431,"á»ĵ":432,"ĠT":433,"ĠtrÃ¢u":434,"áº·":435,"Ã£":436,"Ġdá»¥":437,"ĠhÆ¡n":438,"iá»ģu":439,"Ġkhi":440,"Ġdá»¥ng":441,"Ġtáº§m":442,"Ìģ":443,"em":444,"Ġngh":445,"ĠM":446,"Ġ3":447,"Ġchá»¥p":448,"iá»ĩt":449,"Ġvá»Ľi":450,"Ġsa":451,"áº¿t":452,"Ã¡i":453,"ĠnÃªn":454,"Æ°á»Ľ":455,"ĠcÃ²n":456,"Ġvá»ģ":457,"ĠxÃłi":458,"Ġcho":459,"áº©m":460,"ĠmÃłn":461,"ch":462,"Ġpháº©m":463,"Ġtrong":464,"iáº¿t":465,"ĠÄĳc":466,"ĠhÆ¡i":467,"áºŃn":468,"Ġa":469,"ĠviÃªn":470,"áº¯t":471,"Ġtay":472,"Ġ4":473,"Äĥ":474,"Ġcáº£m":475,"Ġná»":476,"Ġcamera":477,"ĠkhÃ¡":478,"Ġlá»Ĺi":479,"....":480,"ÌĢ":481,"ÃŃ":482,"á»ĵi":483,"Ġchá»ī":484,"Ãºc":485,"ĠtÃ¬nh":486,"ĠchÃ":487,"Ġváº":488,"ĠthÃ¡ng":489,"Ġrá»ĵi":490,"Ġchung":491,"Ġtho":492,"Ġra":493,"áº¡y":494,"Ġsao":495,"Ġsá»Ń":496,"Ġcá»§":497,"ĠhÃł":498,"Ġhay":499,"ĠÄĳá»Ļ":500,"á»ĳ":501,"ĠÄĳá»ĥ":502,"uÃ´":503,"ĠcÃ¡i":504,"ĠcÃ¡c":505,"Ġá»©ng":506,"Æ°a":507,"...":508,"ĠthÃ":509,"Ġqua":510,"«n":511,"á»Ľi":512,"Ġ5":513,"Pin":514,"ĠnÃ³i":515,"Ì£":516,"00":517,"áº¯m":518,"Ã©":519,"Ġw":520,"Ġháº¿t":521,"yá»":522,"ĠlÃºc":523,"Ġcon":524,"Ġnhiá»ģu":525,"Ġnhiá»ĩt":526,"Ġnhá»":527,"ĠgÃ¬":528,"iá»ĥ":529,"Ġcá»§a":530,"Ġy":531,"uÃ´n":532,"Ġáº£":533,"Ġla":534,"Ã²ng":535,"áº¯c":536,"Ġlo":537,"ĠlÃ¢u":538,"Ġngon":539,"Ġpháº£i":540,"áº¥u":541,"Ġváº«n":542,"ķi":543,"Ġgiá»":544,"ĠnÃ³ng":545,"Ãłn":546,"ĠphÃ":547,"ĠÄĳáº§":548,"Æ°ng":549,"áº¿u":550,"Ġthá»©":551,"Ġnghe":552,"ĠÄĳÃ£":553,"ĠCh":554,"Ġláº¯m":555,"Ļt":556,"ang":557,"Ġf":558,"iá»ģn":559,"±c":560,"ĠchÆ°a":561,"ĠV":562,"Ġáº£nh":563,"¢n":564,"ĠkhÃ¡c":565,"Ġsau":566,"á»įi":567,"ÄĲ":568,"yá»ĩ":569,"ĠS":570,"Ãło":571,"Ġmá»įi":572,"ĠÄĳá»ģ":573,"ĠnhÃ¢n":574,"áº¡n":575,"ĠsÃłi":576,"ðŁ":577,"ĠvÃ¢n":578,"Ġtrá»":579,"Ġtá»¥":580,"įng":581,"Ã´i":582,"¯a":583,"áº¥n":584,"yá»ĩt":585,"áºŃy":586,"ĠhÃłng":587,"Ġthoáº¡i":588,"Ġmáº¡":589,"fi":590,"ĠnháºŃn":591,"ĠnÃło":592,"Ã¡n":593,"ĠluÃ´n":594,"Æ°á»Ľc":595,"ĠnÄĥ":596,"Ġtá»ĩ":597,"uá»ĳ":598,"Ġkhá»":599,"ĠlÃªn":600,"Ġbá»":601,"ĠÄĲ":602,"Ġlag":603,"Æ°á»Ŀi":604,"iÃª":605,"Ġtiá»ģn":606,"Ġná»¯a":607,"Æ°á»£ng":608,"Má»Ľi":609,"MÃ¬nh":610,"Ġma":611,"ĠngÆ°á»Ŀi":612,"ĠváºŃy":613,"ıi":614,"Ġtiáº¿":615,"Ġtuyá»ĩt":616,"uy":617,"ifi":618,"Ã³i":619,"á»¥c":620,"Æ°Æ¡":621,"Æ°á»Ŀ":622,"ĠkÃ":623,"áº¿n":624,"Ġsáº£n":625,"Ġbiáº¿t":626,"Ġdc":627,"ĠÄĳá»ģu":628,"Ġxem":629,"ĠPin":630,"ĠÄĳá»ķi":631,"Æ°á»Ŀng":632,"ĠliÃªn":633,"Ġá»Ł":634,"ĠsÃ¡ng":635,"áº£m":636,"iá»ĩu":637,"áºŃp":638,"áº·t":639,"«a":640,"ai":641,"Ġto":642,"Ġvá»įng":643,"ĠvÃło":644,"Ġbáº¡n":645,"ip":646,"ĠĠ":647,"ĠÄĳÆ¡":648,"Ġloa":649,"Ã¡o":650,"ĠÄĳiá»ĩn":651,"Ġváº¥n":652,"ĠO":653,"Sáº£n":654,"Ġmáº¥y":655,"im":656,"Ã©t":657,"áº¡m":658,"ĠH":659,"eo":660,"ĠkÃ©m":661,"Ã¡nh":662,"tr":663,"Ġláº§n":664,"Ġvá»¥":665,"ĠlÃ²ng":666,"Ġtuáº§n":667,"Ġho":668,"Ġwifi":669,"Ġ6":670,"áº£ng":671,"©c":672,"iáº¿n":673,"Ġtá»«":674,"Ńch":675,"Ġnháº¡y":676,"ĠÄĳáº¿n":677,"ĠL":678,"Ġtá»¥t":679,"Ã½":680,"an":681,"ĠtrÆ°á»Ľc":682,"Ã³ng":683,"Ġvá»Ŀi":684,"áº£o":685,"ĠhÃłi":686,"Ġgá»įi":687,"ĠgiáºŃt":688,"ĠtÆ°":689,"Ġcháº¡y":690,"áº½":691,"áº·c":692,"ĠA":693,"ĠkhÃ":694,"ĠÄĳáº§u":695,"ub":696,"Ġem":697,"ĠhÃ´":698,"Ġcáº¥u":699,"ĠK":700,"ĠlÆ°á»£ng":701,"Ġkho":702,"Ġcao":703,"ĠnÄĥng":704,"Ã¢y":705,"iá»ĩm":706,"Ġ10":707,"pp":708,"hÃ´i":709,"Ġphá»¥c":710,"ĠlÃłm":711,"Æ°á»Ľt":712,"Ġgiá»Ŀ":713,"Ġáº¡":714,"ĠÄĳá»ĭ":715,"Ġdá»":716,"Ġmá»Ļt":717,"ĠthÃŃch":718,"Ġyáº¿u":719,"Ìī":720,"ĠhÃ´m":721,"ĠthÃ´i":722,"Ġ7":723,"Ġcá»±c":724,"al":725,"ĠNh":726,"ĠÄĳá»ĭnh":727,"ĠÄĳi":728,"ĠÄĳá»Ļng":729,"Ġkáº¿":730,"Ġnháº¥t":731,"ĠthÆ°á»Ŀng":732,"iá»ĥm":733,"oi":734,"Ġ8":735,"ĠMÃ¡y":736,"áºŃm":737,"ot":738,"áº»":739,"Ġtháº¥t":740,"en":741,"ðŁĺ":742,"ĠchÃª":743,"ĠÄĳt":744,"Ġchu":745,"ĠnÃ©t":746,"Ġtá»±":747,"Ġbáº¯t":748,"Ġso":749,"Ġvá»«a":750,"±ng":751,"sung":752,"Ġtáº¡m":753,"ĠbÃ¬nh":754,"Ch":755,"inh":756,"áº¥p":757,"Ã¢m":758,"Ġgáº§n":759,"amsung":760,"Ġbáº£o":761,"ĠrÃ":762,"pin":763,"Ġtháº¿":764,"ĠquÃ¢n":765,"ĠdÃ¹":766,"ĠOK":767,"hÃ¢n":768,"ĠvÃ¬":769,"Ġmá»Ł":770,"ĳi":771,"ĠtÃŃ":772,"ĠÄĳÃ¡ng":773,"Ġvi":774,"ĠcháºŃm":775,"Mua":776,"Ġmáº·t":777,"ĠsÃ³ng":778,"Ġmáº¥t":779,"Ġtáº¯t":780,"Ġtiáº¿ng":781,"Æ°Æ¡ng":782,"ĠG":783,"ĠlÆ°á»Ľt":784,"áº±ng":785,"Ã¡t":786,"£p":787,"ut":788,"gd":789,"Ġsáº½":790,"Ãªm":791,"ĠÄĳiá»ģu":792,"ĠB":793,"Ġthiáº¿t":794,"Ġhá»£p":795,"¯ng":796,"Äĳ":797,"ĠtÃ´i":798,"ĠhÃ":799,"ĠÄĳang":800,"ĠTh":801,"Ġngo":802,"á»ĵn":803,"Ġpháº§n":804,"ĠÄĳáº§y":805,"uá»ĵn":806,"Ġmáº¡ng":807,"Ġbáº£n":808,"iá»ĥu":809,"ĠkhÃ³":810,"ĠÄĳÃ¡nh":811,"Ġdo":812,"ĠÄĳÃ³":813,"Ġmáº¡nh":814,"Ġ9":815,"ĠtháºŃt":816,"Ġsá»±":817,"Ġtgd":818,"ĠmÃłu":819,"Ġai":820,"ĠNÃ³i":821,"mi":822,"au":823,"á»Ļ":824,"ĠnháºŃt":825,"á»Ļt":826,"Ġvs":827,"áº¥m":828,"one":829,"Ġhá»ıi":830,"uyÃªn":831,"ĠÄĳá»ĵ":832,"Ġthá»ĥ":833,"Ġ(":834,"ĠcáºŃp":835,"ui":836,"Ġcam":837,"Ġsá»ĳ":838,"iÃªu":839,"Ġcháº¥t":840,"Ġbáº±ng":841,"........":842,"Ġtáº¡i":843,"Ġcá»©":844,"Ġnhá»¯ng":845,"Ġhiá»ĩn":846,"ĠtrÃªn":847,"mÃ¡y":848,"ppo":849,"Ġnay":850,"uá»ĳn":851,"ĠX":852,"ĠÄĳiá»ĥm":853,"Ġtá»ĳi":854,"GD":855,"eb":856,"ĠTGD":857,"hone":858,"ĠdÃ²ng":859,"§ng":860,"áº·ng":861,"ĠP":862,"ĠrÃµ":863,"Ġchá»ĭ":864,"ĠngoÃłi":865,"ĠR":866,"ĠnhÃ¬":867,"Ġthá»Ŀi":868,"!!":869,"ºt":870,"Ġmuá»ĳn":871,"Qu":872,"Ġsáº¯c":873,"Ġhá»Ļ":874,"oo":875,"ĠchÃ¡n":876,"ĠhÃłnh":877,"Ġtgdd":878,"Ġj":879,"Ġchá»©":880,"Ġnghiá»ĩm":881,"ĠCamera":882,"Ġe":883,"ĠÃ½":884,"Ġphim":885,"Ġ20":886,"Ġsamsung":887,"ĠbáºŃt":888,"ote":889,"ma":890,"Ġnha":891,"Ġtuá»Ļt":892,"es":893,"Ġip":894,"Ġtá»Ľi":895,"000":896,"ĠD":897,"20":898,"Ãłng":899,"Ġbiáº¿n":900,"Ã´ng":901,"Ġsang":902,"ube":903,"Th":904,"ĠNhÆ°ng":905,"Ġz":906,"á»ī":907,"et":908,"ĠÃŃ":909,"įn":910,"Ġbao":911,"ro":912,"Ġnhá»ı":913,"Ġdá»ħ":914,"ĠÄĳÃªm":915,"Ġnáº¿u":916,"ĠNhÃ¢n":917,"ĠhÃ£":918,"out":919,"Ġmá»©c":920,"ĠMÃ¬nh":921,"ĥn":922,"ªm":923,"á»Ń":924,"ĠÄĳÃ¢u":925,"Ġnháº¹":926,"ĠÄĳá»§":927,"Ġkhá»ıi":928,"th":929,"Ġcáº§m":930,"Ġhiá»ĩu":931,"ĠsiÃªu":932,"Ġtin":933,"ĠtÃ¡c":934,"ĠchÃŃ":935,"Ġnháº¡c":936,"Ġtrung":937,"Ġmá»Ĺi":938,"áº¯n":939,"uá»ĳng":940,"))":941,"Ġcháº¿":942,"ĵi":943,"Ġnguá»ĵn":944,"ĠthÃªm":945,"ĠnhÃ¬n":946,"ac":947,"Ġ:":948,"ĠphÃŃ":949,"QuÃ¡":950,"outube":951,"ĠÃ¢m":952,"ĠvÃłi":953,"Ġtráº£i":954,"ĠbÃªn":955,"ĠbÃ¡o":956,"Ġkhoáº£ng":957,"deo":958,"ĠcÃ¹ng":959,"Ġthi":960,"Ġtá»¥c":961,"lu":962,"ĠnhÃ©":963,"Ġxuá»ĳng":964,"įc":965,"Ġthua":966,"áº§u":967,"oa":968,"ĠhÃ£ng":969,"ĠÃŃt":970,"ubg":971,"Ġre":972,"rt":973,"áº¡t":974,"Ġvideo":975,"Ġcháº¯c":976,"Ãºng":977,"alo":978,"ĠÄĳÃ¢y":979,"Ġmá»Ŀ":980,"Ġtrá»£":981,"ĠnÄĥm":982,"iao":983,"Ġgian":984,"ia":985,"Ġmong":986,"Ġráº»":987,"ĠĠĠĠ":988,"le":989,"ĠÄĳa":990,"Ġká»":991,"Ä©":992,"Ġcu":993,"ĠcÃ¡ch":994,"Ġchá»ĭu":995,"Ġcáº§n":996,"Ġdiá»ĩn":997,"«ng":998,"Ġchip":999,"ĠTGDD":1000,"Ġnote":1001,"ĠphÃ¢n":1002,"mart":1003,"ĠbÃłn":1004,"Ľn":1005,"Ġlu":1006,"Ġoppo":1007,"ĠCÃ²n":1008,"ģn":1009,"Ġláº¥y":1010,"Ġtráº£":1011,"Ġweb":1012,"ĠlÆ°ng":1013,"Ġgiáº£m":1014,"ÄĲiá»ĩn":1015,"Ġi":1016,"ĠnhiÃªn":1017,"ĠtÃŃnh":1018,"iaomi":1019,"Ìĥ":1020,"ĳng":1021,"Ġ100":1022,"Ãłnh":1023,"ĠlÃ½":1024,"ĠvÃ´":1025,"Ġxong":1026,"ĠChÆ¡i":1027,"Ġbá»ı":1028,"Ġlá»Ľn":1029,"ĠÄĳá»ĵng":1030,"ĠF":1031,"Ġthanh":1032,"Ġxáº¥u":1033,"iÃ¡":1034,"Ġkáº¿t":1035,"Äĥng":1036,"Ġnáº·ng":1037,"ĠbÃ¡n":1038,"£i":1039,"Ġdi":1040,"Ġtuy":1041,"10":1042,"áº¡ng":1043,"Ġyoutube":1044,"hi":1045,"Ļi":1046,"Ġpubg":1047,"ĠkhuÃ´n":1048,"90":1049,"re":1050,"Ġtai":1051,"Ġtrá»«":1052,"Ġhao":1053,"Ġ...":1054,"Łi":1055,"Ġhá»Ĺ":1056,"Ġgiá»Ľi":1057,"me":1058,"ĠcÃ¡o":1059,"ĠchÃºt":1060,"Ġquay":1061,"Ńa":1062,"ĠÄĳÃºng":1063,"Ã£i":1064,"Ġchá»įn":1065,"Ġváº»":1066,"Ġhiá»ĥu":1067,"Ġtriá»ĩu":1068,"ĠCáº£m":1069,"ÄĲÃ£":1070,"Ġmi":1071,"DÃ¹ng":1072,"ĠnhÃł":1073,"Ãªu":1074,"Ġá»§ng":1075,"Ãºt":1076,"ĠÆ°ng":1077,"áº³":1078,"Ġdung":1079,"Ġthá»Ń":1080,"Ġcáº§u":1081,"Ġthiá»ĩn":1082,"ģm":1083,"ĠÆ¡n":1084,"ĠðŁĺ":1085,"Ġtáº¥t":1086,"Ġkiá»ĥu":1087,"Ġthu":1088,"Ġtheo":1089,"Ġrá»":1090,"Ġmá»ģm":1091,"Ġfb":1092,"Ġmau":1093,"Ġmáº¯t":1094,"Ġmáº·c":1095,"Ġnhu":1096,"ðŁĳ":1097,"á»Ļc":1098,"NÃ³i":1099,"ºc":1100,"ĠthÆ°Æ¡ng":1101,"ĠcÅ©":1102,"Má»įi":1103,"Sau":1104,"vo":1105,"ĠcÃłi":1106,"Æ°u":1107,"Ġquáº£ng":1108,"ĠthÃ´ng":1109,"Ġtrá»įng":1110,"Ġmax":1111,"Nh":1112,"uáº¥t":1113,"Ġhá»ĵi":1114,"ĠMÃłn":1115,"Ã¨":1116,"Ġbiá»ĩt":1117,"iáº¿c":1118,"dr":1119,"Ġthá»ĭ":1120,"Ġkháº¯c":1121,"ĠTr":1122,"Ġiphone":1123,"Ġzalo":1124,"Ġgiáº£i":1125,"Ġan":1126,"ĠtÆ°á»£ng":1127,"Ġsim":1128,"ĠChá»¥p":1129,"lus":1130,"Ġbáº¥m":1131,"Ġá»ĳ":1132,"Ã²i":1133,"ĠphÃŃm":1134,"ll":1135,"te":1136,"±a":1137,"áº©":1138,"ĠCÃ³":1139,"Ġná»ĳi":1140,"Camera":1141,"ĠtÃ¢m":1142,"Ġvui":1143,"Ġoke":1144,"Ġco":1145,"ĠKhÃ´ng":1146,"Ã³c":1147,"droi":1148,"Ã¡m":1149,"ĠÄĥn":1150,"Ġxanh":1151,"Ġ12":1152,"ĠViá»ĩt":1153,"Ġá»ĳp":1154,"Ġchiáº¿n":1155,"Ġram":1156,"ĠÄĳá»©ng":1157,"ĠMua":1158,"ĠchÃŃnh":1159,"ĠkÃ¬":1160,"Ġsp":1161,"Ġsai":1162,"áº£y":1163,"Ġngay":1164,"ĠÄĳá»ĳi":1165,"ĠNg":1166,"Ġkhá»Łi":1167,"Ġhoáº·c":1168,"mÃ¬nh":1169,"ĠcÃ´ng":1170,"iá»ĩc":1171,"ÃŃnh":1172,"Ġviá»ĩc":1173,"Ġ15":1174,"Ġ!":1175,"Ġdt":1176,"īnh":1177,"ıe":1178,"ĠÄĳÃ¡o":1179,"Ġxa":1180,"Ġu":1181,"Ġchi":1182,"Ġchá»Ŀ":1183,"Ġkhá»ıe":1184,"á»Ĺi":1185,"ĠÄĳen":1186,"ĠnghÄ©":1187,"chÆ¡i":1188,"ĠthÃ¢n":1189,"ĠSÃłi":1190,"Ġ30":1191,"ĠkhÃ¡ch":1192,"Ġkhá»§ng":1193,"Ġca":1194,"Ġpro":1195,"ĠÄĳáº·t":1196,"Ġtháº¥p":1197,"Ġbin":1198,"ĠÄĳá»«ng":1199,"ĠÄĳá»£i":1200,"Ġxuáº¥t":1201,"iá»ĥn":1202,"11":1203,"ĠtáºŃn":1204,"Æ°á»Ľng":1205,"ĠÄĳem":1206,"ĠháºŃn":1207,"Ġdu":1208,"ĠphÃ¡t":1209,"Ġnhá»Ľ":1210,"ĠChá»ī":1211,"dmi":1212,"Ġ..":1213,"á»©ng":1214,"Ġtá»Ļi":1215,"Ġ11":1216,"Ġfac":1217,"ĠkhÃºc":1218,"ĠkhÃ³a":1219,"ĠY":1220,"Ġanh":1221,"NhÃ¢n":1222,"camera":1223,"á»«a":1224,"Ġmang":1225,"Ã¡p":1226,"ĠÄĳÃ²i":1227,"ĠRáº¥t":1228,"50":1229,"ıng":1230,"Ġcáº¥p":1231,"nhÆ°ng":1232,"Ġnhiá»ĩm":1233,"Ġchiáº¿c":1234,"Ġchá»©c":1235,"yá»ĥn":1236,"ĠphÃ¹":1237,"ĠcÆ¡":1238,"ĠÄĳÃ´i":1239,"Ġgá»":1240,"Ġtráº¡ng":1241,"ĠSáº¡c":1242,"Ġbá»ģn":1243,"ĠtoÃłn":1244,"est":1245,"ðŁĳį":1246,"TÃ´i":1247,"ps":1248,"á»ķi":1249,"Ġtiáº¿t":1250,"Ġss":1251,"nÃ³i":1252,"Ġhai":1253,"Æ°á»Ľi":1254,"ĠgiÃ¡c":1255,"Ġthá»±c":1256,"Ãºi":1257,"ok":1258,"Ġtiá»ĩn":1259,"Ġtáº£i":1260,"ĠdÃłi":1261,"Ġthoáº£ng":1262,"ĠrÃ¨":1263,"Ġvivo":1264,"ing":1265,"ĠmÃ¡i":1266,"Ġkinh":1267,"Ġhi":1268,"ĠxÃŃ":1269,"Ġchuyá»ĥn":1270,"Ġcuá»Ļc":1271,"Ġtáº·ng":1272,"Ġtiáº¿c":1273,"ĠPh":1274,"ook":1275,"XÃłi":1276,"ull":1277,"Æ°á»Ł":1278,"Ġtiáº¿p":1279,"droid":1280,"Cáº£m":1281,"70":1282,"cÃ²n":1283,"ĠtiÃªn":1284,"ĠtÃºi":1285,"Ġcháº¥p":1286,"Ġxiaomi":1287,"Ġhá»ĳi":1288,"Ġáº£o":1289,"Ġbá»Ļ":1290,"ĠOppo":1291,"................":1292,"ĠTGDÄĲ":1293,"Æ°á»Łng":1294,"ĠtÆ°Æ¡ng":1295,"Ġsd":1296,"ĠMá»Ľi":1297,"Ġná»ķi":1298,"ĠSamsung":1299,"iÃªng":1300,"ĠxÃŃu":1301,"ĠÃªm":1302,"ĠÄĳáº·c":1303,"ĠdÆ°á»Ľi":1304,"Ġ5000":1305,"ĠKh":1306,"ebook":1307,"30":1308,"51":1309,"Em":1310,"Ġli":1311,"Ġnháº¯n":1312,"Ġnháº£y":1313,"ĠthÃłnh":1314,"Äĥn":1315,"ĠphÃºt":1316,"áº©n":1317,"mua":1318,"ĠÄĳÆ°Æ¡":1319,"Ġba":1320,"áº¡ch":1321,"Ġgiá»ĳng":1322,"er":1323,"á»©":1324,"Ġtra":1325,"Ġgia":1326,"iáº¿u":1327,"á»ģ":1328,"Ġta":1329,"Ġviá»ĩt":1330,"Ġbáº¥t":1331,"Ġbuá»ĵn":1332,"ĠkhuyÃªn":1333,"ĠÄĳá»įc":1334,"alme":1335,"ChÆ¡i":1336,"áº³ng":1337,"Sao":1338,"smart":1339,"ĠcÃłng":1340,"ĠrÃ¢":1341,"ĠdÃ¡n":1342,"ĠMÃł":1343,"Ġloáº¡i":1344,"Ġfull":1345,"Ráº¥t":1346,"sáº£n":1347,"Ġmk":1348,"Ġmn":1349,"Ġláº§m":1350,"Ġthoáº£i":1351,"Ġredmi":1352,"gb":1353,"á»ĩ":1354,"Ġxá»©ng":1355,"á»ĳt":1356,"Ġcháº£":1357,"Ġbi":1358,"ĠmÃłng":1359,"ĠhoÃłn":1360,"á»Ļng":1361,"%.":1362,"MÃłn":1363,"áº«n":1364,"Ġthay":1365,"áº·p":1366,"Ġapp":1367,"Ġchá»īnh":1368,"Ġquan":1369,"Ġloáº¡n":1370,").":1371,"Ġáº¥m":1372,"Ġcoi":1373,"Ġkia":1374,"áº¡o":1375,"áº¯ng":1376,"Ġhá»į":1377,"Ãºp":1378,"ap":1379,"ie":1380,"ĠQuÃ¡":1381,"ĠtÃ´":1382,"nhÃ¢n":1383,"ĠkÃŃnh":1384,"Ġhiá»ĥn":1385,"Ġcá»Ńa":1386,"Ġ+":1387,"Ľt":1388,"Ġtest":1389,"ĠkÃªu":1390,"Ġban":1391,"Ġfi":1392,"ĠLoa":1393,"ĠDÃ¹ng":1394,"Ġviá»ģn":1395,"áº¯p":1396,"ĠGiÃ¡":1397,"Phone":1398,"ve":1399,"Ãµ":1400,"ĠghÃ":1401,"Ġon":1402,"chá»¥p":1403,"Ġ4000":1404,"??":1405,"ĠÆ°u":1406,"á»¥t":1407,"Ġchá»Ĺ":1408,"Ġkhoáº»":1409,"ĠĠĠĠĠĠĠĠ":1410,"CÃ³":1411,"Sp":1412,"el":1413,"Ġmes":1414,"ĠmÃ£i":1415,"Ġva":1416,"Ġchiá»ģu":1417,"Ġcháº¡m":1418,"ĠxÃ©t":1419,"Ġchá»¯":1420,"Ġae":1421,"Ġnhá»ī":1422,"Ġbá»±c":1423,"Cho":1424,"ĠXiaomi":1425,"he":1426,"tt":1427,"xy":1428,"áº«":1429,"ĠcÃ¢n":1430,"Ġplus":1431,"Ã³p":1432,"Ġtrang":1433,"Ġgiao":1434,"Ã¹i":1435,"Ġtui":1436,"Äĥm":1437,"uá»ĳt":1438,"má»Ľi":1439,"mÃłn":1440,"uyá»ĩt":1441,"ĠQ":1442,"Ġgáº·p":1443,"á»ĭch":1444,"ĠNam":1445,"ĠVÃ¢n":1446,"ĠHD":1447,"ĠchÃŃp":1448,",,":1449,"loa":1450,"ob":1451,"ĠbÃ¢y":1452,"Ã³m":1453,"Ġrealme":1454,"ĠiPhone":1455,"Ġgá»įn":1456,"cáº£m":1457,"ei":1458,"ko":1459,"¸ı":1460,"ï¸ı":1461,"Ġcá»¥c":1462,"Ġkiá»ĥm":1463,"ĠnÃºt":1464,"oot":1465,"ķng":1466,"Ġnam":1467,"Ġngá»":1468,"Ġxo":1469,"ĠMá»įi":1470,"Ġná»Ńa":1471,"cÃ³":1472,"kk":1473,"nap":1474,"Ġ....":1475,"Ġáº¥n":1476,"Ġlq":1477,"ĠlÃŃ":1478,"Ġsam":1479,"Ġnv":1480,"áº§y":1481,"ĠgiÃºp":1482,"Ġnhá»±a":1483,"okia":1484,"19":1485,"KhÃ´ng":1486,"sáº¡c":1487,"wei":1488,"ĠW":1489,"á»ĥ":1490,"á»ĳc":1491,"ĠthÃ¢":1492,"Ġhoáº¡t":1493,"Ġvsmart":1494,"oog":1495,"Ġká»³":1496,"Ġlun":1497,"ooth":1498,"Vá»«a":1499,"ĠÄĳáº¥y":1500,"Ġsung":1501,"Ġthiáº¿u":1502,"Ġsá»Ńa":1503,"Ġfps":1504,"ÄĲt":1505,"eno":1506,"oogle":1507,"Ng":1508,"Ġ-":1509,"ĠnÆ°á»Ľc":1510,"ĠbÃ¡c":1511,"Ġrung":1512,"Ġquy":1513,"Ġhá»ĩ":1514,"ĠchÃ¢n":1515,"ĠVsmart":1516,"SÃłi":1517,"Tr":1518,"os":1519,"ph":1520,"ĠgÃ³p":1521,"Ã¢ng":1522,"ĠvÃłng":1523,"Ã¡ch":1524,"ĠCam":1525,"Ġcáº£i":1526,"Ġlá»Ŀi":1527,"ĠCho":1528,"Ġface":1529,"Kh":1530,"khÃ´ng":1531,"©t":1532,"ĠI":1533,"ĠðŁ":1534,"Ġset":1535,"Ã³a":1536,"uawei":1537,"ĠtrÃŃ":1538,"Ġpháº£n":1539,"á»Ńi":1540,"Ġmess":1541,"áº«u":1542,"dÃ¹ng":1543,"á»«":1544,"ĠtÃ¹":1545,"Ġnháº¯c":1546,"ĠriÃªng":1547,"Ġtreo":1548,"Ġxá»Ń":1549,"uÃ´ng":1550,"ĠÄĲÃ£":1551,"!!!":1552,"luet":1553,"500":1554,"op":1555,"ĠÄĳe":1556,"Ġnt":1557,"Ġthao":1558,"Ġrá»Ļng":1559,"Ġphá»¥":1560,"Ġad":1561,"Ġtrá»Ŀi":1562,"ĠLÃºc":1563,"ĠKo":1564,"phone":1565,"Ġ)":1566,"Ġáº¥y":1567,"Ľm":1568,"Ġcx":1569,"Ġmay":1570,"ĠmÃ£":1571,"ĠgÃ³c":1572,"Ġthui":1573,"ĠbÃ²":1574,"áº¡nh":1575,"ĠtráºŃn":1576,"Ġkhuy":1577,"ĠxuyÃªn":1578,"Ġthá»īnh":1579,"ĠthoÃ¡t":1580,"ĠXÃłi":1581,"Ġquyáº¿t":1582,"oy":1583,"¨m":1584,"²ng":1585,"Ġcáº¯m":1586,"Ġgá»Ńi":1587,"Ġ13":1588,"ree":1589,"áº³n":1590,"990":1591,"ting":1592,"ĠðŁĳį":1593,"ĠlÆ°u":1594,"Ġháº³n":1595,"Ġhá»ĵ":1596,"Ġ50":1597,"ĠphÃ²ng":1598,"luetooth":1599,"GiÃ¡":1600,"at":1601,"mx":1602,"ĠtÆ°á»Łng":1603,"ĠcháºŃp":1604,"Ġno":1605,"ĠbÃ©":1606,"ĠphÃ´ng":1607,"Ġtráº¯ng":1608,"Ġlá»ĵi":1609,".....":1610,"Ġ60":1611,"Ġká»ĥ":1612,"ĠÃ´":1613,"Ġti":1614,"Ġtung":1615,"ĠmáºŃt":1616,"Ġcháº³ng":1617,"Ġsinh":1618,"ĠsÆ°á»Ľng":1619,"ĠMong":1620,"Ġchuáº©n":1621,"ĠGame":1622,"ĠnhÃ¬u":1623,"Ġup":1624,"CÃ²n":1625,"ĠÃ´ng":1626,"Ġváº¡ch":1627,"Ġghi":1628,"Ġbt":1629,"ĠCáº¥u":1630,"Ġsá»Ľm":1631,"ĠTÃ´i":1632,"ĠphÃª":1633,"ala":1634,"all":1635,"Ġká»¹":1636,"ĠghÃª":1637,"%,":1638,"ed":1639,"Ġ?":1640,"Ġnháº¡t":1641,"Ġna":1642,"ĠnÃ¢ng":1643,"ĠhÆ°":1644,"Ã¬m":1645,"Ġngang":1646,"ĠnguyÃªn":1647,"chá»ī":1648,"ĠyÃªn":1649,"ĠyÃªu":1650,"Ġtrá»Ł":1651,"ĠkÃ¨m":1652,"ĠkhoÃ¡":1653,"Ġhá»Ļp":1654,"Thiáº¿t":1655,"£t":1656,"Ġminh":1657,"ĠkÃ©":1658,"Ġkiá»ĩm":1659,"Ġxáº¡c":1660,"iáº¿ng":1661,"Ġhá»ģ":1662,"á»ĳi":1663,"yá»ĩn":1664,"Ġdá»±":1665,"))))":1666,"Ġrá»Ľt":1667,"Ġandroid":1668,"Ġchá»Ŀn":1669,"ĠPháº£i":1670,"alaxy":1671,"gi":1672,"qu":1673,"ĠÃł":1674,"á»±c":1675,"ĠtÃ¬m":1676,"Ġms":1677,"ĠmÃ¡t":1678,"ĠÄĳÃ¡p":1679,"Ġláº¯c":1680,"Ġha":1681,"Æ°á»¡":1682,"Ġmá»ıng":1683,"Ġ16":1684,"Ġtá»ĳn":1685,"Ġchá»§":1686,"Ġsá»£":1687,"Ġlá»±a":1688,"Ġ48":1689,"ĠVá»Ľi":1690,"ĠAn":1691,"Ġngoáº¡i":1692,"Ġsá»ĳng":1693,"Ġsetting":1694,"vÃ¢n":1695,"ĠcÃ¢":1696,"Ġsh":1697,"ĠhÆ°á»Ľng":1698,"ĠbÃ¹":1699,"Ġchá»ĳng":1700,"Ġlá»±c":1701,"Ġhá»įa":1702,"12":1703,"Ko":1704,"plus":1705,"ĠcÆ°á»Ŀng":1706,"Ġmáº¹":1707,"ĠÄĳo":1708,"Ġliá»ĩu":1709,"Ġkiáº¿n":1710,"ĠvÄĥng":1711,"Ġsnap":1712,"ine":1713,"ĠÄĳá»Ŀi":1714,"ĠxÃ³a":1715,"uá»ĳi":1716,"ĠtgdÄĳ":1717,"acebook":1718,"Cam":1719,"GB":1720,"up":1721,"¯u":1722,"ĠÃ¡nh":1723,"Ġcall":1724,"ĠvÆ¡":1725,"Ġreno":1726,"Ġdk":1727,"ĠdÃ¡ng":1728,"ĠtrÃ¬nh":1729,"ĠÄĳá»īnh":1730,"71":1731,"Tuyá»ĩt":1732,"Zalo":1733,"la":1734,"ráº¥t":1735,"Ġkiá»ĩn":1736,"ĠsÃ¡nh":1737,"ĠrÆ°á»¡":1738,"Ġquáº£":1739,"Ġtá»ĳc":1740,"ĠchÃ¢":1741,"ĠchÃº":1742,"Ġtá»«ng":1743,"ĠhÃª":1744,"ĠYoutube":1745,"Ġonl":1746,"obi":1747,"ĠrÆ°á»¡i":1748,"Con":1749,"mÃł":1750,"ĠÃ":1751,"ĠQu":1752,"á»Ł":1753,"Ġlung":1754,"ĠnháºŃp":1755,"Ġnhau":1756,"ĠchuÃ´ng":1757,"hÃ¬n":1758,"Ġtrc":1759,"Ġ18":1760,"Ġ40":1761,"Ġcá»§ng":1762,"Ġfree":1763,"ĠVá»ģ":1764,"ĠTháº¥t":1765,"Ġfacebook":1766,"Ah":1767,"kh":1768,"oc":1769,"zz":1770,"hÃŃch":1771,"Ġháº£o":1772,"ĠthÃ¡i":1773,"Ġbu":1774,"iá»Ŀ":1775,"ĠNáº¿u":1776,"ĠNote":1777,"Ġ32":1778,"Ġchoi":1779,"ĠSáº£n":1780,"Ġkhoáº£n":1781,"ood":1782,"ĠluáºŃn":1783,"ĠFacebook":1784,"quÃ¡":1785,"),":1786,"Loa":1787,"Sáº¡c":1788,"cam":1789,"ĠcÃ¹i":1790,"ĠmÆ¡":1791,"Ġkg":1792,"Ġhd":1793,"Ġtháº»":1794,"Ġdáº«n":1795,"Ġtráº§y":1796,"Ġvá»¡":1797,"Ġxin":1798,"Ġnghá»ĩ":1799,"ĠVi":1800,"ĠhoÃłi":1801,"ĠLiÃªn":1802,"Vá»Ľi":1803,"mp":1804,"ou":1805,"pro":1806,"ĠÆ¡i":1807,"ĠZalo":1808,"Ġmáº«u":1809,"ĠÄĳÃ´":1810,"ĠÄĳáºŃp":1811,"Ġthiá»ĩu":1812,"ĠbÃ¡t":1813,"ĠCÃ¡c":1814,"Ġhá»įc":1815,"ĠSau":1816,"!!!!":1817,"Ġ:))":1818,"Ġshop":1819,"LÃºc":1820,"da":1821,"eng":1822,"Ġâ":1823,"ĠÃ¡m":1824,"Ãłm":1825,"ĠÄĳk":1826,"ĠÄĳÃ¨":1827,"Ġchs":1828,"Ġnáº£n":1829,"Ġgáº¡o":1830,"Ġgoogle":1831,"ĠxÆ°á»Ľc":1832,"ĠlÃłnh":1833,"á»ĭn":1834,"Ġ4500":1835,"ĠchÃ³":1836,"Ġhoi":1837,"ĠThiáº¿t":1838,"ĠthuáºŃt":1839,"NhÆ°ng":1840,"60":1841,"Báº¯t":1842,"VÃ¢n":1843,"sao":1844,"Ġ0":1845,"ĠJ":1846,"iá»ħ":1847,"Ġ14":1848,"ĠTuy":1849,"Ġ64":1850,"ĠAi":1851,"Chá»¥p":1852,"Tháº¥y":1853,"ï¸ıâ":1854,"ĠWifi":1855,"obile":1856,"cáº¥u":1857,"ta":1858,"¥°":1859,"ĠÃ¡":1860,"ĩt":1861,"ĠmÆ°Æ¡":1862,"hÃŃ":1863,"Ġgalaxy":1864,"Ġtha":1865,"ĠrÆ¡i":1866,"ĠdÃłnh":1867,"Ġdá»ĭch":1868,"ĠtrÆ°á»Ŀng":1869,"Ġá»©c":1870,"ĠphiÃªn":1871,"Ġquáº§n":1872,"Ġcá»©ng":1873,"Ġná»ģn":1874,"Ġwa":1875,"ĠChÃ¡n":1876,"ĠVÃł":1877,"ĠTháº¥y":1878,"elfi":1879,"((":1880,"di":1881,"oÃłi":1882,"Ġ%":1883,"á»Ŀ":1884,"ĠcáºŃn":1885,"ĠlÃ´":1886,"ĠkÄ©":1887,"ĠnhÃ¢":1888,"ĠnhiÃª":1889,"Ġselfi":1890,"Ã³n":1891,"Ġngáº§m":1892,"Ġvá»ĭ":1893,"Ã´m":1894,"ĠCon":1895,"Ġhá»ıng":1896,"ĠNÃªn":1897,"Ġ90":1898,"ĠPU":1899,"Ġntn":1900,"Ġkhuyáº¿n":1901,"ĠAndroid":1902,"date":1903,"BG":1904,"Cáº¥u":1905,"MX":1906,"Táº¥t":1907,"game":1908,"ive":1909,"lay":1910,"om":1911,"Ġ\"":1912,"Ļ¥":1913,"á»Ŀi":1914,"Ġmáº¯c":1915,"Ãłu":1916,"ĠÄĳáº¯t":1917,"ĠÄĳÆ°á»Ŀng":1918,"Ġvuá»ĳt":1919,"Ġcháº¯n":1920,"Ġsá»¥t":1921,"Ġnokia":1922,"Ġda":1923,"Ġdáº¥u":1924,"Ġduy":1925,"ĠxÃ¡c":1926,"Ġcáº£nh":1927,"ĠMá»Ĺi":1928,"Ġwed":1929,"ĠphÃ¢":1930,"Ġfan":1931,"ðŁ¤":1932,"Ġchuyá»ĩn":1933,"mah":1934,"ĠxoÃ¡":1935,"ĠtÃ¹y":1936,"Ġupdate":1937,"enger":1938,"Ph":1939,"Qua":1940,"Sá»Ń":1941,"á»ı":1942,"ngÃły":1943,"ĠnhÃ²":1944,"Ġchai":1945,"ĠgÃ¡i":1946,"Ġhá»Ł":1947,"Ġthá»§":1948,"Ġlá»£i":1949,"ðŁĺĤ":1950,"ĠRe":1951,"Ġmic":1952,"ðŁĳĮ":1953,"Ġ128":1954,"NG":1955,"Tá»ĳt":1956,"Ġtáº¿":1957,"ĠtÃ¢":1958,"ĠtÄĥng":1959,"ĠlÃ¡c":1960,"Ġhu":1961,"ĠngÃ³n":1962,"Ġkha":1963,"Ġxinh":1964,"Ġpha":1965,"Ġlá»Ĺ":1966,"Ġwi":1967,"ĠÄĲá»":1968,"ĠÄĲá»ĥ":1969,"ime":1970,"Ġjoy":1971,"ĠTrong":1972,"Ġlite":1973,"Ġfire":1974,"Ġonline":1975,"Ġbuá»ķi":1976,"ĠÄĳÃ¨n":1977,"Ai":1978,"giÃ¡":1979,"hz":1980,"lÃºc":1981,"tÃ´i":1982,"xÃłi":1983,"Ġin":1984,"Ġcáº¡nh":1985,"Ġcuá»ĳi":1986,"Ġmo":1987,"Ġnháº¥n":1988,"Ġche":1989,"ĠsáºŃp":1990,"ĠsÃ¡ch":1991,"ĠbÃ³ng":1992,"Ġmá»ıi":1993,"Ġxe":1994,"Ġxá»ĭn":1995,"Ġquen":1996,"Ġout":1997,"Ġgiá»¯":1998,"ĠChÆ°a":1999,"Ġdá»Ł":2000,"ĠTháºŃt":2001,"ĠNghe":2002,"Ġselfie":2003,"ĠPUBG":2004,"ĠnhÃ²e":2005,"Náº¿u":2006,"Å©ng":2007,"Ġmiáº¿ng":2008,"Ġláº½":2009,"ĠvÃ£i":2010,"Ġhuawei":2011,"Ġthe":2012,"Ġres":2013,"á»ĭp":2014,"iáº¿m":2015,"ĠNokia":2016,"ĠMáº¥y":2017,"Ġsac":2018,"Ġwf":2019,"ĠÄĲiá»ĩn":2020,"Ġload":2021,"ĠHay":2022,"Ġdá»¯":2023,"ðŁĺŃ":2024,"TháºŃt":2025,"Ġmik":2026,"Ġlive":2027,"ĠMÃłu":2028,"tttt":2029,"Ġreset":2030,"OS":2031,"ii":2032,"mong":2033,"má»įi":2034,"sh":2035,"áº±":2036,"ĠtÃ½":2037,"ĠkÃª":2038,"ĠvÃ¢":2039,"Ġcháº¥m":2040,"Ġnot":2041,"ĠhÆ°á»Łng":2042,"Ġbá»ĳ":2043,"Ġdmx":2044,"Ġtru":2045,"Ġngáº¯t":2046,"Ġquáº£n":2047,"Ġquá»ĳc":2048,"Ġof":2049,"ÄĲang":2050,"ĠÄĲang":2051,"ĠOk":2052,"Ġ80":2053,"Chá»ī":2054,"ĠBáº¯t":2055,"Äĳiá»ĩn":2056,"oom":2057,"Tháº¥t":2058,"Ġios":2059,"ĠFB":2060,"ĠYou":2061,"KhÃ¡":2062,"ĠYouT":2063,"khi":2064,"ss":2065,"įt":2066,"ĳt":2067,"áºµ":2068,"Ġmu":2069,"Ġvo":2070,"Ġchá»¥c":2071,"ĠchÄĥm":2072,"Ġhk":2073,"ĠbiÃª":2074,"ĠrÃºt":2075,"Ġtá»©c":2076,"Ġkháº£":2077,"ĠgiÃ¢y":2078,"Ġ24":2079,"Ġ25":2080,"Ġlá»ķi":2081,"ĠMÆ°á»£t":2082,"Ġná»¯":2083,"Ġthá»©c":2084,"Ġbá»ķ":2085,"Ġ720":2086,"2020":2087,"ĠhÃ£y":2088,"Ãµi":2089,"ĠQua":2090,"Ġngá»Ŀ":2091,"ĠkÃ©p":2092,"ĠYouTube":2093,"91":2094,"IN":2095,"Ma":2096,"dra":2097,"gon":2098,"náº¿u":2099,"ĠE":2100,"ĠEm":2101,"Ŀ¤":2102,"á»§":2103,"á»±":2104,"á»¯ng":2105,"ĠcÃ¡":2106,"Ġcá»¥":2107,"Ġmáº½":2108,"ĠÄĳÃª":2109,"ĠkÃŃ":2110,"ĠvÄĥn":2111,"ĠnhiÃªu":2112,"ĠsÆ°":2113,"Ġsuy":2114,"Ġsuá»ĳt":2115,"ĠnÃłn":2116,"Ġbth":2117,"Ġbluetooth":2118,"ĠrÃ´":2119,"ĠrÃłng":2120,"ĠtrÆ°a":2121,"ĠphÃłn":2122,"Ġcá»ĳ":2123,"ĠNhÃ¬n":2124,"Ġac":2125,"ðŁ¥°":2126,"ĠÄĲÃ¡ng":2127,"ĠHÃ¬nh":2128,"ðŁĺģ":2129,"ĠGiá»Ŀ":2130,"ï¸ıâĻ¥":2131,"ðŁĺŃðŁĺŃ":2132,"dragon":2133,"64":2134,"Lá»Ĺi":2135,"UI":2136,"ik":2137,"á»©c":2138,"ĠtÃª":2139,"Ġcame":2140,"Ġmobile":2141,"ĠÄĳu":2142,"ĠnháºŃy":2143,"Ġcha":2144,"ĠsÃ³c":2145,"ĠrÃ¹i":2146,"ĠdÃły":2147,"Ġdáº¡ng":2148,"Ġkhu":2149,"áºŃu":2150,"iá»ĩp":2151,"ĠTÃ³m":2152,"Ġlai":2153,"Ġkhá»±ng":2154,"ĠÄĲt":2155,"Ġ99":2156,"Ġ201":2157,"2019":2158,"Ġandroi":2159,"ĠKhuyÃªn":2160,"ĠĠĠĠĠĠĠĠĠĠĠĠĠĠĠĠ":2161,"Samsung":2162,"dong":2163,"ic":2164,"mb":2165,"sau":2166,"tra":2167,"¥c":2168,"ĠtiÃª":2169,"Ġtinh":2170,"Ġtáº¥m":2171,"Ġcung":2172,"ĠÄĳÆ°a":2173,"Ġváº·t":2174,"ĠchuyÃªn":2175,"Ġse":2176,"Ġnáº¯m":2177,"ĠthÆ°":2178,"ĠbÃłi":2179,"ĠtrÄĥm":2180,"Ġnga":2181,"Ġtá»ķng":2182,"Ġkhung":2183,"Ġkhiáº¿n":2184,"Ã¹a":2185,"ĠquÃł":2186,"ĠCÃ¡i":2187,"Ġcá»¡":2188,"Ġthá»ĳng":2189,"Ġtuá»ķi":2190,"ĠMa":2191,"chÃ¡n":2192,"Ġak":2193,"......":2194,"ĠVin":2195,"ĠSáº½":2196,"Ġmai":2197,"ĠHuawei":2198,"ĠKhi":2199,"oidi":2200,"Cháº¥t":2201,"ĠGoogle":2202,"Ġ98":2203,"ĠXem":2204,"Ġlum":2205,"NháºŃn":2206,"tel":2207,"gioidi":2208,"gioididong":2209,"100":2210,"Mong":2211,"ee":2212,"ep":2213,"mAh":2214,"vÃł":2215,"~~":2216,"ĠÆ°":2217,"Ķn":2218,"ĠtÃ³m":2219,"ĠÄĳÄĥng":2220,"ĠvÃ¡":2221,"Ġnhe":2222,"Ġnhung":2223,"ĠsÆ¡":2224,"Ġbá»¥":2225,"ĠxÃ£":2226,"Ġphu":2227,"Ġhá»¯u":2228,"Ġlá»ĩ":2229,"ĠTáº§m":2230,"cho":2231,"á»ĳng":2232,"ĠVN":2233,"ĠNháºŃn":2234,"ÄĳÃ£":2235,"ĠThua":2236,"Ġ:)":2237,"ðŁĳįðŁĳį":2238,"Ġfix":2239,"pháº£i":2240,"Ġmessenger":2241,"ï¸ıâĻ¥ï¸ıâĻ¥":2242,",...":2243,"65":2244,"Wifi":2245,"fps":2246,"hÆ¡i":2247,"Ġáº":2248,"Ġtáº£":2249,"Ġtáº¿t":2250,"ĠcÃ¢u":2251,"ĠmÃª":2252,"ĠÄĳiÃª":2253,"ĠÄĳeo":2254,"Ġláº¡":2255,"ĠvÃª":2256,"ĠvÃ²ng":2257,"Ġsáº¡t":2258,"Ġsmart":2259,"Ġnoi":2260,"Ġháº¡n":2261,"Ġgo":2262,"Ġbáº¯p":2263,"ĠdÆ°ng":2264,"ĠdÃŃnh":2265,"Ġnge":2266,"Ġkhen":2267,"ĠÄĳá»¡":2268,"áº¹t":2269,"ĠNV":2270,"ĠTá»ĳt":2271,"ÃŃt":2272,"Ġ500":2273,"Ġbá»¯a":2274,"ĠÄĲÆ°á»£c":2275,"ĠÄĲMX":2276,"ĠNhÆ°":2277,"ĠNhiá»ģu":2278,"ĠGi":2279,"ĠDi":2280,"ĠÃŃch":2281,"ack":2282,"Ġxoay":2283,"KhuyÃªn":2284,"ĠðŁ¤":2285,"ĠtÃ¹m":2286,"áº±m":2287,"HÃłng":2288,"Láº§n":2289,"Máº¥y":2290,"Vá»ģ":2291,"ara":2292,"con":2293,"oáº¡i":2294,"vá»Ľi":2295,"xem":2296,"Ļng":2297,"Ľp":2298,"ĠtáºŃp":2299,"Ġcm":2300,"ĠmÆ°á»Ľt":2301,"ĠÄĳáº¡i":2302,"ĠÄĳmx":2303,"Ġlinh":2304,"Ġnho":2305,"ĠgÃµ":2306,"Ġbl":2307,"Ġru":2308,"ĠdÃ¡m":2309,"Ġngáº¡i":2310,"Æ°á»£n":2311,"ĠÄĳá»£t":2312,"Ġsá»©c":2313,"ĠThÃŃch":2314,"Ġná»į":2315,"Ġváº©":2316,"ĠChip":2317,"ĠÄĲáº·c":2318,"ĠLQ":2319,"ĠLÆ°á»Ľt":2320,"ank":2321,"ðŁĺį":2322,"Ġchup":2323,"ĠXin":2324,"ĠPubg":2325,"ĠPIN":2326,"ĠphÃŃa":2327,"Ġmiui":2328,"................................":2329,"ieu":2330,"???":2331,"ĠchÃºng":2332,"ĠVivo":2333,"iá»ħn":2334,"ðŁĳĮðŁĳĮ":2335,"Ġthegioididong":2336,"CÃ¡c":2337,"CÃ¡i":2338,"IUI":2339,"MP":2340,"lo":2341,"ltra":2342,"mÆ°á»£t":2343,"tive":2344,"Æ¯u":2345,"Ġ=":2346,"ĠĊ":2347,"Ĥm":2348,"á»ķng":2349,"Ġtg":2350,"ĠtÃªn":2351,"Ġtiá»ĩm":2352,"ĠtiÃªu":2353,"Ġliá»ģn":2354,"Ġvin":2355,"ĠchÆ°Æ¡ng":2356,"Ġns":2357,"ĠgÃ¢y":2358,"Ġgood":2359,"ĠdÃ¢y":2360,"Ġtriá»ĥn":2361,"ĠMáº·c":2362,"ĠMá»Ļt":2363,"ĠMIUI":2364,"Ġfla":2365,"ĠSS":2366,"ĠSo":2367,"ĠÄĲá»ķi":2368,"Ġtiáº¿n":2369,"ĠHiá»ĩu":2370,"Ġhoáº¡":2371,"ĠLáº§n":2372,"Ġ85":2373,"ĠBáº¡n":2374,"ĠBluetooth":2375,"ĠRa":2376,"ĠRam":2377,"ĠDÃ¹":2378,"thÃ¡ng":2379,"ĠcÅ©g":2380,"ĠTrung":2381,"ĠQuÃ¢n":2382,"ĠJoy":2383,"áºµn":2384,"HÃ´m":2385,"Tuy":2386,"Táº¡m":2387,"ag":2388,"báº¯t":2389,"hay":2390,"hiá»ĩu":2391,"iu":2392,"nÃªn":2393,"us":2394,"vá»«a":2395,"¦ng":2396,"ĠU":2397,"Ġáº§m":2398,"ĠÃ¡p":2399,"ĠcÃ¢y":2400,"ĠmÄĥ":2401,"ĠmÆ°á»£n":2402,"ĠÄĳau":2403,"ĠlÆ°Æ¡":2404,"Ġlá»ĭch":2405,"Ġkim":2406,"ĠvÆ°á»£t":2407,"ĠnhÃ¡y":2408,"ĠnhÆ°á»£c":2409,"ĠnhÃłng":2410,"ĠsÆ¡n":2411,"Ġsuáº¥t":2412,"ĠnÆ¡i":2413,"Ġbáº¯n":2414,"ĠtrÃłn":2415,"Ġtrai":2416,"Ġvá»ı":2417,"Ġxáº£y":2418,"Ġphone":2419,"Ġlá»¡":2420,"Ġnghiá»ĩp":2421,"ĠMi":2422,"yá»ģn":2423,"ĠVáºŃy":2424,"ĠÄĲem":2425,"ĠHÆ¡i":2426,"ĠHÃłng":2427,"Ġdá»«ng":2428,"áº»o":2429,"Äĳt":2430,"Äĳá»ĥ":2431,"ĠPhÃ":2432,"Ġnhah":2433,"thiáº¿t":2434,"Ġrá»Ĺ":2435,"áº©y":2436,"ĠKhÃ¡":2437,"kkkk":2438,"Ngon":2439,"ĠkÃ©o":2440,"ĠchÃ³ng":2441,"Ġváº©n":2442,"40":2443,"490":2444,"Táº¡i":2445,"cÃ¡c":2446,"de":2447,"qua":2448,"rime":2449,"¢nh":2450,"Ãģ":2451,"ĠtÃłi":2452,"ngay":2453,"Ã¡g":2454,"ĠkhÃ´":2455,"Ġká»ĭp":2456,"Ġháº¡":2457,"Ġhinh":2458,"Ġgam":2459,"Ġplay":2460,"Ġdanh":2461,"ĠtrÃ²":2462,"Ġtá»ĵi":2463,"ĠÄĳá»©t":2464,"ĠnhÆ°g":2465,"ĠCáº§m":2466,"Ãºa":2467,"áº·n":2468,"Ġ3000":2469,"Ġná»Ĺi":2470,"Ġgiá»¯a":2471,"ĠSá»Ń":2472,"ĠÄĲiá»ĥm":2473,"ĠĠĠ":2474,"ĠHá»":2475,"Ġhome":2476,"ĠApp":2477,"gdd":2478,"ĠBá»Ļ":2479,"Ġ2020":2480,"Ġzoom":2481,"led":2482,"áº©u":2483,"obe":2484,"Ġngá»§":2485,"ĠIphone":2486,"Ġkhuyáº¿t":2487,"ĠchÃ¢u":2488,"Pháº£i":2489,"ðŁĺĤðŁĺĤ":2490,"ĠkÃŃch":2491,"15":2492,"31":2493,"33":2494,"80":2495,"Iphone":2496,"PS":2497,"Sai":2498,"sÃłi":2499,"tuy":2500,"va":2501,"vv":2502,"vie":2503,"ÃĢ":2504,"Ġam":2505,"Ġcong":2506,"Ġcáº¥n":2507,"nhiá»ģu":2508,"Ġmh":2509,"Ġmp":2510,"ĠmÃ¢":2511,"ĠmAh":2512,"ĠÄĳÆ°Æ¡ng":2513,"Ġviáº¿t":2514,"ĠchÄĥng":2515,"Ġsáº¯p":2516,"Ġsáºµn":2517,"ĠnÃ¨":2518,"Ġgáº¥p":2519,"Ġbay":2520,"ĠbÃ¡m":2521,"Ġráº±ng":2522,"Ġdáº§n":2523,"Ã³t":2524,"ĠtrÃ¡i":2525,"á»ĭnh":2526,"Ġgames":2527,"ĠCH":2528,"Ġcá»ķng":2529,"Ġhá»ķ":2530,"Ġsá»Ł":2531,"Ġsáº¡ch":2532,"á»ĵng":2533,"ĠTH":2534,"ĠTuyá»ĩt":2535,"Ã£n":2536,"Ġnghá»ĭ":2537,"Ġthoa":2538,"Ġrat":2539,"ĠÄĳá»Ļt":2540,"Ġnhá»£t":2541,"Ġlang":2542,"ÄĲá»":2543,"ÄĲáº¹p":2544,"ĠSnap":2545,"ĠÄĲÃ¡nh":2546,"ĠÄĲá»Ļng":2547,"ĠHi":2548,"trong":2549,"ĠLÃ¢u":2550,"Ġtá»±a":2551,"ChÃ¡n":2552,"ÄĳÃ¡ng":2553,"ĠÄĳá»ĵn":2554,"Theo":2555,"á»Ńa":2556,"ĠðŁĺĤ":2557,"Ġduyá»ĩt":2558,"ĠÄĳÆ°Æ¡c":2559,"Ġcháº£nh":2560,"Ġsmartphone":2561,"view":2562,"**":2563,"Mk":2564,"Táº§m":2565,"Tui":2566,"cáº§m":2567,"nos":2568,"ram":2569,"st":2570,"tut":2571,"wifi":2572,"±t":2573,"Ġim":2574,"Ġ!!!":2575,"áº¤":2576,"ĠtÃłu":2577,"Ġcl":2578,"ĠcÃły":2579,"Ġlam":2580,"ĠlÄĥ":2581,"ĠlÃ¡t":2582,"hÃªm":2583,"Ġki":2584,"Ġhá»¥t":2585,"áº¡p":2586,"Ġro":2587,"Ã¬n":2588,"ĠtrÆ¡n":2589,"Ġtrá»ĳng":2590,"Ġngu":2591,"Ġngá»ĵi":2592,"ĠngÆ°Æ¡":2593,"Ġkháº©u":2594,"Ġmá»¥c":2595,"ĠgiÃł":2596,"Ġphong":2597,"Ġphiá»ģn":2598,"Ġ120":2599,"iá»ģm":2600,"Ġ23":2601,"Ġ27":2602,"Ġ28":2603,"Ġthá»«a":2604,"Ġtuá»Ļc":2605,"Ãºn":2606,"ĠMá»Ł":2607,"ĠCháº¥t":2608,"ĠChiáº¿n":2609,"ĠChá»©":2610,"ĠVÃ¬":2611,"ĠVá»«a":2612,"ÄĲiá»ĥm":2613,"ĠLÃł":2614,"ĠAnh":2615,"Ġchug":2616,"Chip":2617,"uty":2618,"ĠBuá»ĵn":2619,"Ġ:((":2620,"Ä©nh":2621,"Ġiu":2622,"ĠFi":2623,"ĠtuyÃª":2624,"mera":2625,"ĠNgoÃłi":2626,"xynos":2627,"))))))))":2628,"tar":2629,"ĠRedmi":2630,"ðŁĺģðŁĺģ":2631,"Ġbá»¥i":2632,"Ġblut":2633,"tutu":2634,"21":2635,"22":2636,"32":2637,"Moi":2638,"MÃłu":2639,"Ok":2640,"ThÃŃch":2641,"jh":2642,"lÃªn":2643,"lÃ¢u":2644,"oled":2645,"sÃ³ng":2646,"vi":2647,"Ġ^":2648,"ĠÆ":2649,"Ġty":2650,"ĠcÆ°":2651,"ĠcÃ¡p":2652,"ĠÄĳung":2653,"ĠÄĳáº§m":2654,"ĠÄĳÃ´ng":2655,"Ġláº¯p":2656,"ĠnhÃ¡":2657,"Ġnháº§m":2658,"ĠnÆ°":2659,"ĠhÆ¡":2660,"Ġgg":2661,"Ġgem":2662,"Ġgáº¯n":2663,"ĠthiÃª":2664,"ĠbÃł":2665,"ĠbÃºt":2666,"ĠdÃłng":2667,"Ġtráº»":2668,"ĠtrÃ£i":2669,"ĠÄĳá»ı":2670,"Ġvá»£":2671,"ĠqÃ¡":2672,"ĠquÃ©t":2673,"Ġoki":2674,"Ġcá»Ļng":2675,"Ġ22":2676,"Ġlá»«a":2677,"ĠTáº¥t":2678,"ĠTáº¯t":2679,"ĠTiáº¿c":2680,"Ã£y":2681,"chu":2682,"Ġyout":2683,"Ġlau":2684,"ĠCháº¯c":2685,"Ġbá»ĥ":2686,"ĠÄĲá»Ļ":2687,"Ġ660":2688,"ĠtÆ°Æ¡i":2689,"ĠKáº¿t":2690,"ĠNhá»¯ng":2691,"ðŁĺĳ":2692,"ĠtÃŃn":2693,"ĠBÃ¬nh":2694,"ĠBáº£o":2695,"Äĳang":2696,"ĠThá»©":2697,"Ġhá»Ļi":2698,"ĠðŁĺį":2699,"Ġrá»ı":2700,"Ġrá»±c":2701,"NhÆ°á»£c":2702,"Ã¨o":2703,"Ġapple":2704,"Tráº£i":2705,"Ġhá»ĵng":2706,"Ġsnapdragon":2707,"upg":2708,"Ġcá»¥m":2709,"ðŁ¥°ðŁ¥°":2710,"Ġáº¢nh":2711,"//":2712,"690":2713,"Dt":2714,"MÆ¡":2715,"May":2716,"SÃ³ng":2717,"cro":2718,"láº§n":2719,"mm":2720,"máº¥y":2721,"mang":2722,"og":2723,"phÃ":2724,"tiáº¿ng":2725,"Ġ........":2726,"ħn":2727,"á»Ķn":2728,"Ġtam":2729,"nghe":2730,"ĠcÃ¡m":2731,"ĠmÃ´":2732,"Ġmoi":2733,"ĠmÃ¹a":2734,"ĠÄĳÃ¢":2735,"ĠÄĳáº¯n":2736,"Ġlong":2737,"Ġkiáº¿m":2738,"ĠchÃ¡t":2739,"ĠsÃ¢u":2740,"Ġsong":2741,"ĠsÃ¡t":2742,"Ġnáº±m":2743,"Ġthiá»ĩt":2744,"Ġtháº¯c":2745,"ĠthÃ¡o":2746,"ĠthÃ¡nh":2747,"ĠthÃ¡g":2748,"Ġbo":2749,"Ġpk":2750,"Ġprime":2751,"ĠdÃ¢n":2752,"ĠdÃ£":2753,"ĠdáºŃy":2754,"Ġduty":2755,"Ġtruy":2756,"ĠngÃ£":2757,"Ġxung":2758,"ĠxÆ°a":2759,"Ġá»¦ng":2760,"iáº¿p":2761,"ĠChÃ":2762,"ĠCáº§n":2763,"Ġthá»ı":2764,"ĠTá»«":2765,"ĠnghiÃª":2766,"Ġnghá»ī":2767,"Ġná»ķ":2768,"Ġná»Ļi":2769,"ĠthÃª":2770,"Ġquanh":2771,"Ġwep":2772,"yá»ħn":2773,"Ġgiá»±t":2774,"Ġff":2775,"ĠVÃło":2776,"ðŁĩ":2777,"Ġmacro":2778,"ĠHÃ´m":2779,"pppp":2780,"Ġ70":2781,"ĠNhÆ°á»£c":2782,"Ġvien":2783,"ĠBá»ĭ":2784,"ĠTháº¿":2785,"ĠThá»Ŀi":2786,"Ġ96":2787,"ĠXanh":2788,"á»īnh":2789,"tháºŃt":2790,"Ġreview":2791,"ĠthuáºŃn":2792,"Ġnhug":2793,"Ġbit":2794,"ĠWi":2795,"Ġnova":2796,"Ġtik":2797,"uper":2798,"Ġ:)))":2799,"ĠâĿ¤":2800,"ĠRealme":2801,"Ġwif":2802,"tttttttt":2803,"Ġactive":2804,":))":2805,"AM":2806,"CÅ©ng":2807,"ED":2808,"Fi":2809,"Minh":2810,"Nv":2811,"NhÃ¬n":2812,"Tá»«":2813,"UA":2814,"ae":2815,"ar":2816,"cre":2817,"giá»Ŀ":2818,"lÆ°á»Ľt":2819,"lá»Ĺi":2820,"táº§m":2821,"un":2822,"uáº§n":2823,"³ng":2824,"Ã©m":2825,"Ġcua":2826,"Ġcáº¯t":2827,"Ġmiá»ħn":2828,"ĠÄĳáº¥t":2829,"ĠÄĳÃ³ng":2830,"ĠÄĳáº¡t":2831,"Ġlm":2832,"Ġlao":2833,"Ġvu":2834,"ĠnhÃ¡nh":2835,"Ġcháº¿t":2836,"Ġchat":2837,"Ġne":2838,"Ġniá»ģm":2839,"Ġháº§u":2840,"Ġgá»ĳc":2841,"ĠtháºŃm":2842,"Ġthá»¥t":2843,"Ġbh":2844,"Ġbn":2845,"Ġbáº¡":2846,"ĠbÃ¨":2847,"ĠbÃ³c":2848,"áº£nh":2849,"Ġroi":2850,"Ġrom":2851,"ĠdÆ°":2852,"Ġtráº¥n":2853,"ĠÄĳá»¥":2854,"ĠÄĳá»ķ":2855,"ĠxÃ¬":2856,"Ġxai":2857,"ĠmÃły":2858,"Ġgiáº£":2859,"ĠphÃł":2860,"Ġchá»¯a":2861,"Ġ21":2862,"Ġsá»įc":2863,"ĠNH":2864,"ĠNv":2865,"ĠNÃ³":2866,"ĠThÃ¬":2867,"ĠTáº¡i":2868,"Ġnghi":2869,"ĠMáº·t":2870,"ĠMuá»ĳn":2871,"Ġah":2872,"Ã©p":2873,"Ġgiá»įt":2874,"ĠphÃ³ng":2875,"ĠCháº¡y":2876,"ĠVOS":2877,"ĠSÃ³ng":2878,"Ġtrá»¯":2879,"Ġtrá»ħ":2880,"Ġbá»©c":2881,"Ġbá»Ľt":2882,"ĠHá»ĳi":2883,"trieu":2884,"Ġhok":2885,"ĠLuÃ´n":2886,"ĠLá»Ĺi":2887,"ChÆ°a":2888,"Ġexynos":2889,"tháº¥t":2890,"Ġ:(":2891,"ĠÄĳag":2892,"Nhiá»ģu":2893,"Ġultra":2894,"ieng":2895,",,,":2896,"Trong":2897,"ĠÄĳep":2898,"ĠhÃªn":2899,"iá»ħu":2900,"Ġcmt":2901,"ĠnhoÃ¨":2902,"anks":2903,"ĠApple":2904,"<<":2905,"@@":2906,"Ad":2907,"Hiá»ĩu":2908,"Iá»":2909,"Káº¿t":2910,"Mi":2911,"Má»Ĺi":2912,"PP":2913,"Xem":2914,"ite":2915,"ke":2916,"má»Ł":2917,"pt":2918,"play":2919,"uyá»ħn":2920,"©p":2921,"Å©":2922,"ĠÆ¡":2923,"Ġuy":2924,"Ġáº©n":2925,"Ĥ«":2926,"á»³":2927,"á»ķ":2928,"ĠtáºŃu":2929,"ĠcÄĥng":2930,"ĠÄĳÃłi":2931,"ĠÄĳiÃªn":2932,"ĠÄĳÆ¡n":2933,"Ġle":2934,"ĠlÃ¢":2935,"ĠlÃ²i":2936,"Ġláº«n":2937,"Ġvn":2938,"Ġvay":2939,"ĠváºŃt":2940,"ĠvÃ¡n":2941,"Ġvoi":2942,"Ġchua":2943,"Ġsu":2944,"Ġnáº¥y":2945,"Ġnáº¯p":2946,"Ġhy":2947,"Ġhuy":2948,"ĠgÆ°Æ¡ng":2949,"ĠbáºŃn":2950,"Ġpupg":2951,"Ġde":2952,"Ġdáº¡o":2953,"ĠdÃµi":2954,"uan":2955,"ĠngÆ°á»£c":2956,"ĠkhÄĥn":2957,"Ġvá»©t":2958,"Ġmá»ĩt":2959,"Ġgiáº£n":2960,"Ġ17":2961,"Ġ19":2962,"ĠCá»±c":2963,"Ġcá»Ļt":2964,"Ġ26":2965,"ĠTgdd":2966,"Ã£ng":2967,"chá»©":2968,"Ġná»©t":2969,"Ġthoi":2970,"ĠthÃ²":2971,"Ã©o":2972,"Ġyt":2973,"ÄĲÃ¡nh":2974,"ĠSai":2975,"Ġtrá»±c":2976,"Ġtrá»Ļi":2977,"uá»ĳc":2978,"Ġbá»ģ":2979,"ĠÄĲáº¿n":2980,"Ġman":2981,"ĠHiá»ĩn":2982,"Ġ665":2983,"ĠKH":2984,"ĠÄĳá»ĭch":2985,"ent":2986,"ðŁĺĦ":2987,"ðŁĺĬ":2988,"ĠhÃ²":2989,"Ġ97":2990,"Ġji":2991,"ĠDo":2992,"rome":2993,"thua":2994,"tháº¥y":2995,"thang":2996,"Ġcug":2997,"Ġrá»¡":2998,"Ġantutu":2999,"ĠNguyá»ħn":3000,"Ġhihi":3001,"ĠrÃ¢t":3002,"ĠQuá»ĳc":3003,"Nghe":3004,"Ġdá»±t":3005,"ĠÃĤm":3006,"khÃ¡":3007,"ðŁĺŃðŁĺŃðŁĺŃðŁĺŃ":3008,"Ġflash":3009,"Ġ855":3010,"Ġclip":3011,"creen":3012,"ĠÄĳá»¥ng":3013,"35":3014,"92":3015,"DÃ²ng":3016,"HÆ¡i":3017,"LÆ°á»Ľt":3018,"LED":3019,"MÃł":3020,"Má»Ļt":3021,"Note":3022,"OK":3023,"PU":3024,"Sa":3025,"TÃ³m":3026,"ix":3027,"so":3028,"sá»Ń":3029,"tv":3030,"thÃ¬":3031,"tá»ĳt":3032,"uc":3033,"xx":3034,"zalo":3035,"âĦ":3036,"Ġáº¹p":3037,"ĠÆ°a":3038,"Ġ!!":3039,"įp":3040,"ĵn":3041,"ĺº":3042,"á»£":3043,"á»Łi":3044,"Ġte":3045,"ĠtÄĥ":3046,"ĠcÃ´":3047,"nhÆ°á»£c":3048,"nhÃ¬n":3049,"ĠmÃºn":3050,"ĠÄĳáº£m":3051,"ĠÄĳÃłnh":3052,"ĠlÆ°á»£t":3053,"Ġliá»ĩt":3054,"ĠlÃµi":3055,"hÃ³":3056,"Ġke":3057,"Ġvan":3058,"Ġchay":3059,"Ġsáº¯t":3060,"ĠsÄĥ":3061,"Ġnc":3062,"Ġnet":3063,"Ġháº£":3064,"Ġhet":3065,"ĠthÆ¡":3066,"Ġtháº§n":3067,"Ġthan":3068,"ĠbÃ¡":3069,"ĠrÃ¬":3070,"Ġdel":3071,"ĠtrÃ´ng":3072,"ĠtrÃ³c":3073,"Ġngta":3074,"Ġkhong":3075,"ĠÄĳá»Ĺi":3076,"Ġvá»Ļi":3077,"Ġxs":3078,"ĠphÃ¡":3079,"Ġphan":3080,"ĠquÃªn":3081,"ĠquÃłi":3082,"Ã²a":3083,"ĠCáºŃp":3084,"Ġchá»«ng":3085,"ĠtuÃ¢":3086,"ĠTT":3087,"ĠTiá»ģn":3088,"Ìģ.":3089,"ĠMáº¡ng":3090,"Ġ35":3091,"cháº¯c":3092,"Ġ43":3093,".......":3094,"Ġváº½":3095,"ĠÄĳá»Ļc":3096,"ĠthÃº":3097,"ĠChá»ĭ":3098,"ĠVÄĥn":3099,"ĠVáº«n":3100,"ÄĲÃºng":3101,"ĠSD":3102,"ĠSam":3103,"ĠSao":3104,"ĠÄĲÃºng":3105,"ĠHo":3106,"Ġhoang":3107,"Ġ65":3108,"Ġkhoa":3109,"Ġdá»ĥ":3110,"Ġ76":3111,"ĠNháº¥t":3112,"ĠdÃ¹g":3113,"ĠGá»įi":3114,"ĠGalaxy":3115,"ĠGood":3116,"ĠBá»ı":3117,"ĠThÃ¡i":3118,"ĠXá»©ng":3119,"ĠPro":3120,"ĠReno":3121,"ess":3122,"ĠDá»":3123,"ĠDMX":3124,"Thá»©":3125,"Ġzing":3126,"theo":3127,"ĠĠĠĠĠ":3128,"Ġthuá»Ļc":3129,"Ġrá»ĩt":3130,"Nhanh":3131,"Ġuá»ķng":3132,"........................":3133,"Ġlien":3134,"Ġbik":3135,"ĠtÃ´t":3136,"ĠghÃ©t":3137,"NgoÃłi":3138,"ĠIP":3139,"ĠðŁĳįðŁĳįðŁĳį":3140,"ĠÃ´m":3141,"ðŁ¤ª":3142,"Ġmuot":3143,"ĠMax":3144,"~~~~":3145,"Ġlá»ĩch":3146,"ðŁĺįðŁĺį":3147,"ĠPhÃ¹":3148,"ĠSnapdragon":3149,"Ġ^^":3150,"âĦħ":3151,"16":3152,"=>":3153,"CáºŃp":3154,"Game":3155,"Khi":3156,"MO":3157,"Ram":3158,"So":3159,"Vi":3160,"go":3161,"hu":3162,"it":3163,"máº¥t":3164,"min":3165,"may":3166,"máº·c":3167,"má»Ĺi":3168,"nn":3169,"nv":3170,"oáº£ng":3171,"ore":3172,"pe":3173,"táº¥t":3174,"tok":3175,"©a":3176,"Æ¯":3177,"âĿ¤":3178,"Ġ/":3179,"ĠhÃ´ng":3180,"Ġ@@":3181,"á»§ng":3182,"Ġtt":3183,"ĠtÆ°Æ¡":3184,"Ġtime":3185,"ĠcÃł":3186,"Ġcáº¥m":3187,"Ġcáº¡ch":3188,"ĠmÃ¢y":3189,"ĠÄĳÆ°":3190,"ĠÄĳÃ¬nh":3191,"ĠÄĳáº³ng":3192,"ĠlÃ¡":3193,"ĠlÆ°Æ¡ng":3194,"ĠlÃ£i":3195,"Ġkeo":3196,"Ġve":3197,"Ġvl":3198,"Ġviá»ĩn":3199,"Ġvos":3200,"Ġnhi":3201,"Ġnhiá»ħu":3202,"Ġchia":3203,"Ġcháº·n":3204,"Ġsáº¯m":3205,"Ġstar":3206,"Ġsuper":3207,"Ġht":3208,"Ġháº¡i":3209,"ĠhiÃª":3210,"Ġháº±ng":3211,"ĠgÃ¢":3212,"Ġgáº¡ch":3213,"ĠthÃł":3214,"ĠthÆ°Æ¡":3215,"ĠbÃ¢":3216,"Ġbong":3217,"Ġbai":3218,"ĠbÃŃt":3219,"ĠrÃ¡c":3220,"Ã¬h":3221,"Ġtrá»¥":3222,"Ġngáº¯n":3223,"ind":3224,"Ġmá»ģn":3225,"Ġxu":3226,"Ġqa":3227,"ĠqÃºa":3228,"Ġá»įp":3229,"Ġpháº§m":3230,"Ġpháº¿t":3231,"Ġphai":3232,"Ġquyá»ģn":3233,"ony":3234,"ĠChÃŃ":3235,"ĠCá»§":3236,"Ġchá»ķ":3237,"Ġchá»Ľp":3238,"Ġcá»Ń":3239,"Ġ200":3240,"ĠTá»±":3241,"ĠMá»":3242,"Ġ3500":3243,"chiáº¿n":3244,"Ġaut":3245,"Ġ45":3246,"Ġran":3247,"ĠthÃ¹":3248,"Ġnhá»Ŀ":3249,"Ġbá»Łi":3250,"Ġbá»ĩt":3251,"Ġtoi":3252,"ĠOPP":3253,"ĠHÃłi":3254,"ĠHá»ĩ":3255,"ĠhoÃ¡":3256,"ĠLÃªn":3257,"ĠLÃłm":3258,"ĠLive":3259,"ĠAMO":3260,"Ġ730":3261,"ðŁĺĺ":3262,"ĠBÃłn":3263,"Äĳá»Ļ":3264,"ĠhÃºt":3265,"Ġdoanh":3266,"ĠRiÃªng":3267,"ĠDung":3268,"ĠFree":3269,"ĠTrá»«":3270,"Ġcomm":3271,"Ġspen":3272,"ĠNgÃły":3273,"ĠNgoáº¡i":3274,"Ġgá»¡":3275,"Ġhaizz":3276,"Ġfile":3277,"TrÆ°á»Ľc":3278,"ĠðŁ¥°":3279,"Ġ5020":3280,"ĠhÃªt":3281,"khuyÃªn":3282,"Ġmod":3283,"Ġoff":3284,"Ġ2017":3285,"ï¸ıâĻ¥ï¸ıâĻ¥ï¸ıâĻ¥ï¸ıâĻ¥":3286,"Ġruá»ĵi":3287,"Ġ=))":3288,"ĠkhÃ´g":3289,"Ġamoled":3290,"ĠFire":3291,"Ġyoutobe":3292,"Ġthá»ıa":3293,"ĠhÃ²a":3294,"Ġdelay":3295,"Ġauto":3296,"ĠAMOLED":3297,"Ġcomment":3298,",..":3299,"790":3300,"Gb":3301,"Hiá»ĩn":3302,"MÆ°á»£t":3303,"NH":3304,"VÃ¬":3305,"Vsmart":3306,"ad":3307,"cÃ¡i":3308,"eam":3309,"gá»įi":3310,"gsh":3311,"hÃłng":3312,"is":3313,"ien":3314,"line":3315,"máº¡ng":3316,"ol":3317,"or":3318,"pu":3319,"sus":3320,"tieng":3321,"vs":3322,"vÃ¬":3323,"vá»ģ":3324,"váº«n":3325,"ÃĮ":3326,"ÃĶ":3327,"ÃĤm":3328,"Ġ;":3329,"Ġ).":3330,"Ġ??":3331,"īu":3332,"á»Ľ":3333,"Ġtp":3334,"ĠthÃ´":3335,"Ġtáº§n":3336,"Ġtáº£n":3337,"Ġtes":3338,"ngon":3339,"Ġck":3340,"Ġcai":3341,"ĠcÃ£i":3342,"nháºŃn":3343,"Ġme":3344,"ĠmÃ¡":3345,"ĠmÃ¹ng":3346,"ĠmÃ´i":3347,"ĠÄĳáº±ng":3348,"Ġláº»":3349,"Ġkkk":3350,"Ġvc":3351,"ĠvÆ¡i":3352,"Ġváº¿t":3353,"ĠvÃ¢y":3354,"Ġváº§y":3355,"Ġchplay":3356,"Ġnx":3357,"Ġnua":3358,"Ġnáº¯ng":3359,"Ġgb":3360,"Ġgh":3361,"Ġtham":3362,"ĠthÆ°a":3363,"ĠthÆ°á»£ng":3364,"Ġbj":3365,"Ġbung":3366,"Ġbáº¡c":3367,"ĠbÄĥ":3368,"Ġbinh":3369,"Ġbá»ĳc":3370,"ĠrÃ¹a":3371,"ĠdÃ´":3372,"ĠdÆ°Æ¡ng":3373,"ĠdÃ¨":3374,"Ġtrá»ĭ":3375,"ĠtrÆ°Æ¡":3376,"Ġtrog":3377,"Ġngá»Ńa":3378,"Ġtá»ī":3379,"Ġtá»Ń":3380,"Ġkhe":3381,"Ġkhiáº¿p":3382,"ĠÄĳá»¥c":3383,"Ġvá»±c":3384,"Ġmá»¹":3385,"Ġxáº¡":3386,"Ġxao":3387,"ĠxÃ³t":3388,"ĠgiÆ¡":3389,"Ġá»Ķn":3390,"áº¹n":3391,"ĠCo":3392,"ĠCá»©":3393,"Ġokie":3394,"Ġcá»ķ":3395,"Ġhá»īu":3396,"Ġsá»¯":3397,"Ãºm":3398,"ĠNG":3399,"ĠTáº£i":3400,"ĠTáº¡m":3401,"ĠThÃªm":3402,"ĠMUA":3403,"Ġ33":3404,"chÆ°a":3405,"chip":3406,"Ġap":3407,"Ġná»ĳt":3408,"ĠchÃºc":3409,"ĠhÃło":3410,"ĠÄĳá»ĥu":3411,"Ġquang":3412,"ĠwÃ¡":3413,"ĠyÃª":3414,"ĠphÃº":3415,"ĠphÃ©p":3416,"Ġfa":3417,"Ġfim":3418,"ĠVs":3419,"ÄĲÆ°á»£c":3420,"Ġkhá»Ľp":3421,"Ġbá»Ļi":3422,"ĠÄĲT":3423,"ĠÄĲáº¹p":3424,"ĠÄĲÃ¢y":3425,"ĠÄĲá»ģ":3426,"Ġmak":3427,"ail":3428,"ĠHÃ²a":3429,"Ġhoa":3430,"Ġ1080":3431,"Ġ710":3432,"ĠNhu":3433,"end":3434,"ĠdÃ¹m":3435,"ĠtÃŃch":3436,"ĠGB":3437,"ĠGáº§n":3438,"ĠBin":3439,"ĠBÃ¢y":3440,"Äĳá»":3441,"ÄĳÆ°á»£c":3442,"Äĳem":3443,"á»Ļi":3444,"Ġcamara":3445,"Ġcammera":3446,"ĠDÆ°Æ¡ng":3447,"Ġzin":3448,"ettel":3449,"Ġthik":3450,"Ġká»ĩ":3451,"Ġid":3452,"ĠðŁĺģ":3453,"ĠðŁĺĺ":3454,"Ġthuong":3455,"NhÆ°":3456,"ĠTrÃ¢u":3457,"ter":3458,"Ġcomb":3459,"ĠNgon":3460,"Ġduoc":3461,"Ġgá»Łi":3462,"ĠPháº§n":3463,"Ġlqmb":3464,"ĠÃ´n":3465,"mÃłu":3466,"ĠÃĢ":3467,"ĠQuáº£ng":3468,"zzz":3469,"!!!!!!!!":3470,"Ġinch":3471,"Ġace":3472,"ĠÄĳuoc":3473,"Ġ2018":3474,"Ġseal":3475,"ðŁĳĮðŁĳĮðŁĳĮðŁĳĮ":3476,"ÄĲá»«ng":3477,"áº¤T":3478,"Ġblutooth":3479,"ĠÆ¯ng":3480,"ĠWiFi":3481,"Ġytb":3482,"ðŁ¤ªðŁ¤ª":3483,"ĠOPPO":3484,"gship":3485,"%...":3486,"*.":3487,",....":3488,".,":3489,"18":3490,"67":3491,"99":3492,">>":3493,"Cá»©":3494,"Cá»±c":3495,"FT":3496,"Giao":3497,"HÃ¬nh":3498,"LÃªn":3499,"NÃªn":3500,"OM":3501,"VÃł":3502,"Xin":3503,"bá»ĭ":3504,"cm":3505,"co":3506,"chÃŃ":3507,"dd":3508,"dt":3509,"km":3510,"liÃªn":3511,"lÃłm":3512,"sa":3513,"sai":3514,"táº¡m":3515,"tui":3516,"tuyá»ĩt":3517,"tá»«":3518,"vÃło":3519,"ver":3520,"»ðŁĩ":3521,"Ġ&":3522,"Ġ*":3523,"Ġ<":3524,"Ġung":3525,"Ġ???":3526,"ĠÃ©p":3527,"ĨðŁĺ":3528,"Ĺn":3529,"á»¡":3530,"á»¨":3531,"Ġtv":3532,"Ġtáº¯c":3533,"ĠtÃ¢y":3534,"ĠtÄĥn":3535,"ĠchÃ´":3536,"ĠcÃ£":3537,"Ġcan":3538,"nháº¥t":3539,"nhan":3540,"Ġmj":3541,"Ġmng":3542,"ĠmÆ¡i":3543,"Ġmanh":3544,"Ġmiáº¿t":3545,"ĠmÆ°a":3546,"Ġmáº»":3547,"Ġmjh":3548,"ĠÄĳÃ¡":3549,"ĠÄĳÄĥ":3550,"ĠÄĳáºŃm":3551,"ĠÄĳáº¡o":3552,"ĠlÆ¡":3553,"Ġláº¡c":3554,"ĠláºŃn":3555,"hÃ¢":3556,"Ġky":3557,"Ġkem":3558,"ĠvÆ°":3559,"ĠvÃŃ":3560,"ĠviÃª":3561,"ĠvÃ¨o":3562,"Ġnhá»ĭp":3563,"ĠchÆ°":3564,"Ġchiáº¿u":3565,"ĠsÃ²":3566,"Ġsáº»":3567,"Ġnu":3568,"ĠnÃª":3569,"ĠnÃ´":3570,"Ġhon":3571,"Ġháº¡t":3572,"Ġga":3573,"ĠgÃł":3574,"ĠthiÃªn":3575,"ĠthÆ°á»Ľc":3576,"Ġtháº±ng":3577,"ĠbÃª":3578,"Ġbest":3579,"iá»Ľi":3580,"ĠrÆ°á»Ľc":3581,"ĠrÃ¡t":3582,"Ġroom":3583,"Ġdá»ĭ":3584,"ĠdÃ²":3585,"Ġdáº¹p":3586,"ĠtrÃ²n":3587,"ĠtrÆ°ng":3588,"ĠtrÃ¡nh":3589,"ĠtrÃ¡ch":3590,"ina":3591,"..!":3592,"ĠkhÆ¡":3593,"ĠkhÃ¡ng":3594,"Ġkháº£o":3595,"Ġkhui":3596,"Ġvá»ĩ":3597,"Ġmá»ĵ":3598,"Ġmá»ĳt":3599,"ĠxÃ²":3600,"ĠxÃ¡ch":3601,"ĠgiÃ¢":3602,"Ġgiang":3603,"Ġá»Ĺn":3604,"Ġquáº¥t":3605,"Ġquáº¡t":3606,"ĠCÃ¹ng":3607,"ĠCÅ©ng":3608,"Ġcá»įc":3609,"Ġ29":3610,"Ġhá»Ŀi":3611,"rang":3612,"Ġlá»Ļ":3613,"Ġlá»ıng":3614,"ĠNo":3615,"ĠNáº£n":3616,"ĠTui":3617,"ĠTest":3618,"ĠTFT":3619,"ĠMáº¥t":3620,"cháº¥t":3621,"Ġ4990":3622,"ÃŃch":3623,"Ġthoai":3624,"á»ĳn":3625,"Ġ55":3626,"Ġlogo":3627,"ĠphÃºc":3628,"ĠChi":3629,"Ġfai":3630,"Ġfun":3631,"ĠVÆ°á»£ng":3632,"ĠVÆ°Æ¡ng":3633,"ÄĲáº§u":3634,"ÄĲá»ĥ":3635,"ĠSp":3636,"ĠSá»ĳ":3637,"fire":3638,"Ġbá»±":3639,"ĠÄĲa":3640,"uyáº¿t":3641,"Æ°á»Ŀn":3642,"ĠHy":3643,"ĠHÃł":3644,"ĠHai":3645,"ĠhoÃłng":3646,"Ġ67":3647,"Ġ632":3648,"ĠLo":3649,"ĠAI":3650,"ĠAe":3651,"Ġdá»¡":3652,"Ġ75":3653,"ĠNhá»Ŀ":3654,"ĠÄĳinh":3655,"Cháº£":3656,"Chiáº¿n":3657,"ĠtÃŃm":3658,"ĠBá»":3659,"ĠBÃ¹":3660,"ĠhÃ³":3661,"ĠThá»±c":3662,"ĠÄĳÃ³n":3663,"Ġ95":3664,"Ġ990":3665,"ĠRá»ĵi":3666,"ooc":3667,"Ġnhac":3668,"Thá»±c":3669,"Ġthich":3670,"Ġred":3671,"ĠiOS":3672,"Ġitel":3673,"Ġmih":3674,"ĠðŁĺĳ":3675,"Ġrá»ķ":3676,"ĠTráº£i":3677,"ĠTrÆ°á»Ľc":3678,"Ġokey":3679,"ĠKhá»Łi":3680,"Ġbass":3681,"ĠghÃ©":3682,"TrÃªn":3683,"ĠðŁĻ":3684,"Ġadmin":3685,"edia":3686,"128":3687,"ĠÃĿ":3688,"Ġâĺº":3689,"ĠchÃ³i":3690,"Ġhuhu":3691,"ike":3692,"ĠkhuÃ¢n":3693,"Ġbá»¥ng":3694,"ĠĊĠĠĠĠĠ":3695,"Ġtggd":3696,"ĠPhÃº":3697,"ÄĲá»įc":3698,"Ġtype":3699,"ĠnghiÃªm":3700,"Ġtiktok":3701,"ĠâĿ¤ï¸ı":3702,"Iá»Ĩ":3703,"Ġhuynh":3704,"ixel":3705,"Vivo":3706,"Ġxaomi":3707,"Ġcombat":3708,"»ðŁĩ³":3709,"+.":3710,",.":3711,"17":3712,"24":3713,"55":3714,"61":3715,"Bá»ĭ":3716,"Báº¡n":3717,"Ban":3718,"Bluetooth":3719,"HD":3720,"HÃłi":3721,"LiÃªn":3722,"Ms":3723,"Máº«u":3724,"Má»Ł":3725,"Mik":3726,"NV":3727,"NÃ³":3728,"Sam":3729,"báºŃt":3730,"báº¡n":3731,"ce":3732,"cá»©":3733,"com":3734,"ctive":3735,"dÃ¹":3736,"gg":3737,"há»":3738,"ion":3739,"ill":3740,"ks":3741,"lm":3742,"lp":3743,"láº¡i":3744,"nam":3745,"ow":3746,"rb":3747,"riÃªng":3748,"sb":3749,"sp":3750,"set":3751,"screen":3752,"tai":3753,"tá»ĩ":3754,"tÃ³m":3755,"tuáº§n":3756,"uu":3757,"uong":3758,"uá»Ļc":3759,"váºŃy":3760,"vui":3761,"xin":3762,"¤NG":3763,"ÃĤ":3764,"ÃĬ":3765,"âĺ":3766,"âĤ«":3767,"Ġ~":3768,"ĠÃ¢n":3769,"ĠÃ´i":3770,"ĠÆ°á»Ľt":3771,"Ġui":3772,"ĠðŁĳĮ":3773,"ĭt":3774,"Ńt":3775,"á»ķn":3776,"á»ıng":3777,"áº¾":3778,"Ġtn":3779,"Ġtem":3780,"ĠtÃ¡i":3781,"ĠtÃło":3782,"ĠtÃłm":3783,"Ġcg":3784,"Ġcs":3785,"ĠcÃ¹":3786,"Ġcanh":3787,"Ġcáº©n":3788,"nhÆ°":3789,"ĠmÆ°á»£c":3790,"Ã¡u":3791,"ĠÄĳÃł":3792,"ĠÄĳáº£":3793,"ĠÄĳáº£o":3794,"ĠÄĳÃºt":3795,"ĠÄĳuá»ĳi":3796,"Ġln":3797,"Ġly":3798,"ĠlÃª":3799,"ĠlÃ¢m":3800,"Ġláº¥m":3801,"ĠlÄĥn":3802,"ĠlÄĥm":3803,"Ġláº¡nh":3804,"Ġvk":3805,"Ġvv":3806,"Ġvao":3807,"Ġnhay":3808,"Ġnhan":3809,"ĠnhÃ¡m":3810,"ĠchÃ¡y":3811,"ĠchÄĥ":3812,"Ġchuy":3813,"ĠchiÃªu":3814,"Ġchiáº¿m":3815,"Ġcháº¡p":3816,"áº¥c":3817,"Ġnong":3818,"ĠnÃ©":3819,"Ġnai":3820,"Ġná»ĭnh":3821,"ĠnÃ£n":3822,"ĠnÃ©m":3823,"Ġhong":3824,"Ġhiá»ĥm":3825,"Ġháº¥p":3826,"ĠhÃ¡t":3827,"Ġhiáº¿m":3828,"ĠgÃ³i":3829,"Ġtháº©m":3830,"Ġtháº³ng":3831,"Ġbáº¡i":3832,"Ġbáº¯c":3833,"Ġbáº£ng":3834,"Ġbee":3835,"Ġping":3836,"ĠráºŃt":3837,"ĠrÃ´i":3838,"Ġráº½":3839,"ĠrÃŃt":3840,"Ġday":3841,"ĠdáºŃt":3842,"Ġdth":3843,"Ġtranh":3844,"ĠtrÆ°á»£t":3845,"ĠtriÃª":3846,"Ġtrá»¥c":3847,"Ġtráº·c":3848,"Ġngá»Ļt":3849,"Ġtá»ĭt":3850,"ĠkhuÃ´ng":3851,"Ġvá»į":3852,"Ġvá»Ľ":3853,"Ġvá»¯ng":3854,"Ġmá»ĭ":3855,"ĠxÃºc":3856,"Ġá»ĵn":3857,"Ġphi":3858,"Ġpháº¿":3859,"Ġpháº£m":3860,"ĠphÆ°Æ¡ng":3861,"Ġphá»©c":3862,"Ġphá»ķ":3863,"Ã¹m":3864,"Ã¹y":3865,"ĠquáºŃn":3866,"Ã´n":3867,"Ġor":3868,"ĠCÃ¡m":3869,"ĠtuÃ´":3870,"Ġlá»ħ":3871,"ĠNÃ³ng":3872,"ĠTQ":3873,"ĠTo":3874,"ĠTá»":3875,"ĠTÃ¡c":3876,"ĠThÃ´i":3877,"ĠTrang":3878,"ĠMP":3879,"ĠMang":3880,"ĠMáº«u":3881,"ĠMobile":3882,"Ġ36":3883,"Ġ300":3884,"cháº¡y":3885,"choi":3886,"ĠÄĳá»Ļi":3887,"ĠthÃºc":3888,"Ì£.":3889,"Ġnhá»īnh":3890,"ĠChu":3891,"ĠCháº£":3892,"ĠChrome":3893,"Ġfpt":3894,"ĠViÃªn":3895,"ĠVote":3896,"ÄĲáº·c":3897,"ÄĲÃ¢y":3898,"ĠÄĲáº·t":3899,"Ġmag":3900,"Ġmade":3901,"Ġtok":3902,"ĠHu":3903,"ĠHÃ¹ng":3904,"ĠHÆ¡n":3905,"tráº£i":3906,"trÆ°á»Ľc":3907,"trá»«":3908,"ĠhoÃł":3909,"ĠLai":3910,"ĠhÃ´i":3911,"ĠKiá»ĥu":3912,"ðŁĺĢ":3913,"ðŁĺħ":3914,"Cháº¡y":3915,"Chiáº¿c":3916,"ĠGia":3917,"ĠGiá»Ľi":3918,"Äĳáº¿n":3919,"Äĳáº·c":3920,"Äĳá»ķi":3921,"ĠhÃ¢":3922,"ĠTheo":3923,"ĠThÃłnh":3924,"Ġngoa":3925,".........":3926,"ĠXs":3927,"ĠXong":3928,"ĠPlus":3929,"ĠPhÃŃ":3930,"ĠRáº¤T":3931,"Ġjack":3932,"Ġ2019":3933,"mast":3934,"ĠDc":3935,"ĠDt":3936,"thi":3937,"ace":3938,"Ġit":3939,"Ġicon":3940,"Ġbá»ıng":3941,"ĠFull":3942,"ĠFPS":3943,"ĠðŁĺĦ":3944,"ĠðŁĺĬ":3945,"Nhá»¯ng":3946,"ĠTrÃ£i":3947,"ĠNgÆ°á»Ŀi":3948,"ĠPhá»¥":3949,"ĠPháº©m":3950,"Ġbat":3951,"Ġtab":3952,"Ġtat":3953,"Ġbiet":3954,"Ġone":3955,"Ġonscreen":3956,"áº«m":3957,"ĠHDR":3958,"Ġxog":3959,"Ġ.....":3960,"Ġ......":3961,"ĠWeb":3962,"ĠthÃ¢y":3963,"NgÆ°á»Ŀi":3964,"phut":3965,"ĠIOS":3966,"ĠðŁĴ":3967,"Ġmessag":3968,"Ġ),":3969,"Ġhá»ĵn":3970,"giáºŃt":3971,"Ġ480":3972,"ĠchÃ¢t":3973,"Ġfreefire":3974,"Ġdag":3975,"Ġmicro":3976,"Ġhum":3977,"Ġhuyá»ĩn":3978,"iii":3979,"Ġtruyá»ĩn":3980,"áºµng":3981,"ĠQuay":3982,"ĠĠĠĠĠĠĠĠĠĠĠĠĠĠĠĠĠĠĠĠĠĠĠĠĠĠĠĠĠĠĠĠ":3983,"ĠGiáºŃt":3984,"ĠGiang":3985,"ĠUltra":3986,"Ġnguoi":3987,"2222":3988,"ðŁĺĳðŁĺĳ":3989,"phÃ¹":3990,"phÃºt":3991,"ĠChÃºc":3992,"ðŁĩ»ðŁĩ³":3993,"Ġwiffi":3994,"tttttttttttttttt":3995,"ðŁĺĦðŁĺĦ":3996,"essenger":3997,"ĠDá»¤NG":3998,"ĠhÃ³a":3999,"02":4000,"04":4001,"76":4002,"AY":4003,"An":4004,"Anh":4005,"Buá»ĵn":4006,"Bá»ı":4007,"CD":4008,"Cáº§m":4009,"CÃ´ng":4010,"Dáº¡":4011,"Hi":4012,"Hy":4013,"Hz":4014,"Huawei":4015,"Há»ĳi":4016,"IM":4017,"Láº¥y":4018,"LÃ¢u":4019,"Máº·c":4020,"Nay":4021,"ON":4022,"TE":4023,"Tiá»ģn":4024,"Tá»ĩ":4025,"VÃło":4026,"báº£o":4027,"cÃłi":4028,"cá»±c":4029,"do":4030,"fb":4031,"fe":4032,"gend":4033,"ha":4034,"hd":4035,"hon":4036,"hÆ¡n":4037,"hÄ©":4038,"io":4039,"iPhone":4040,"mA":4041,"mh":4042,"minh":4043,"máº«u":4044,"mobile":4045,"moled":4046,"no":4047,"nay":4048,"net":4049,"pm":4050,"tg":4051,"táº¯t":4052,"thÃŃch":4053,"tá»±":4054,"thÃªm":4055,"tuan":4056,"um":4057,"uÃ¢n":4058,"uch":4059,"¢u":4060,"£n":4061,"©g":4062,"Ãĵ":4063,"âĢ":4064,"Ġ_":4065,"ĠÃ¡i":4066,"ĠÃ¡o":4067,"Ġáº¥p":4068,"ĠÆ¯u":4069,"Ļm":4070,"ľI":4071,"ŃĲ":4072,"á»Ľt":4073,"á»¦ng":4074,"á»ľI":4075,"ĠtÆ¡":4076,"Ġtáº¡o":4077,"ngoÃłi":4078,"Ġcv":4079,"ĠcÃº":4080,"ĠcÃ¡nh":4081,"ĠcÃ¢m":4082,"ĠcÃºp":4083,"Ġcpu":4084,"nhanh":4085,"nhá»¯ng":4086,"ĠmÃ¹":4087,"ĠmÃ²":4088,"Ġmen":4089,"Ġmáº§u":4090,"Ġmedia":4091,"ĠÄĳg":4092,"ĠÄĳx":4093,"ĠÄĳÃ¹ng":4094,"ĠÄĳáº¥u":4095,"ĠÄĳÃ©t":4096,"ĠÄĳÃŃch":4097,"ĠlÃ²":4098,"Ġlá»¥c":4099,"Ġlen":4100,"Ġláº¯ng":4101,"hÃ©t":4102,"Ġká»ī":4103,"ĠvÃ³":4104,"ĠvÃ¹":4105,"Ġvote":4106,"Ġvlo":4107,"Ġvmast":4108,"Ġnhá»ĭ":4109,"Ġnháº¥p":4110,"Ġnhiu":4111,"Ġchang":4112,"Ġchrome":4113,"Ġchina":4114,"Ġsn":4115,"Ġsx":4116,"ĠsÃ´":4117,"ĠsÃºng":4118,"Ġscreen":4119,"Ġnao":4120,"ĠniÃªn":4121,"Ġnen":4122,"Ġninh":4123,"ĠnÃ¡t":4124,"Ġnuá»ĳt":4125,"ĠhÆ°ng":4126,"ĠhÆ°á»Ľc":4127,"Ġhau":4128,"Ġháº¡ng":4129,"Ġhqua":4130,"Ġgra":4131,"Ġgá»ĵ":4132,"Ġghe":4133,"ĠtháºŃn":4134,"Ġtháº£m":4135,"ĠbÃły":4136,"Ġbáº¿n":4137,"Ġbiá»ĥu":4138,"ĠbÄĥn":4139,"ĠbÃ³p":4140,"Ġbáº±":4141,"Ġbáº©y":4142,"Ġpop":4143,"ĠrÃ²":4144,"ĠrÃ²i":4145,"ĠdÆ¡":4146,"ĠdÃ¬":4147,"Ġdem":4148,"Ġdep":4149,"áº¿p":4150,"Ġtre":4151,"Ġtri":4152,"ĠtrÆ¡":4153,"ĠtrÃ¬":4154,"Ġtráº§n":4155,"ĠnguÃ´":4156,"ĠngÅ©":4157,"Ġtá»ķ":4158,"Ġtá»īnh":4159,"Ġkhá»ĳi":4160,"ĠÄĳá»ĳng":4161,"ĠÄĳá»©a":4162,"Ġvá»įc":4163,"Ġxui":4164,"Ġqtv":4165,"Ġgiáº¥y":4166,"Ġá»ŀ":4167,"á»¥ng":4168,"Ġphin":4169,"Ġphanh":4170,"ĠphÃ¡n":4171,"Ġphiáº¿u":4172,"Ġpháº«m":4173,"áº¹o":4174,"Ġom":4175,"ĠCÃłng":4176,"ĠCÃ´ng":4177,"Ġ,,":4178,"Ġhá»ķi":4179,"Ġhá»ĳt":4180,"Ġsá»ķ":4181,"Ġsá»Ŀ":4182,"Ġtum":4183,"Ġtuá»³":4184,"Ġturb":4185,"Ġlá»įc":4186,"ĠNinh":4187,"ĠTR":4188,"ĠTam":4189,"ĠTÃŃnh":4190,"ĠTá»ĩ":4191,"ĠTá»ĳc":4192,"ĠTuáº§n":4193,"Ã£m":4194,"Ìģ,":4195,"Ìģ..":4196,"ĠnghiÃªng":4197,"ĠMinh":4198,"ĠMau":4199,"ĠMÃģ":4200,"Ġ31":4201,"Ġ34":4202,"chi":4203,"chung":4204,"chá»Ŀ":4205,"Ġ44":4206,"Ġ47":4207,"Ġ400":4208,"Ġ450":4209,"Ġná»Ł":4210,"ÌĢ.":4211,"ĠthÃ¨m":4212,"Ġ59":4213,"Ì£,":4214,"Ġwj":4215,"Ġloi":4216,"ĠCháº¿":4217,"Ġfind":4218,"ĠVÃµ":4219,"ĠVooc":4220,"ÄĲi":4221,"ÄĲÃ¡ng":4222,"ÄĲá»ķi":4223,"ĠSony":4224,"ĠÄĲÃ³":4225,"ĠÄĲÃ´ng":4226,"Ġmah":4227,"Ġmat":4228,"Ġtiáº¿g":4229,"Ġtoa":4230,"Ġtot":4231,"Ġtouch":4232,"ĠHáº£i":4233,"ĠHÆ°ng":4234,"ĠHÃ£y":4235,"ĠLÃª":4236,"ĠLite":4237,"ĠLCD":4238,"ĠActive":4239,"ĠKhÃ³":4240,"ĠkhoÄĥn":4241,"Ġ700":4242,"ĠNhanh":4243,"áº»m":4244,"ðŁĺ£":4245,"ðŁĺª":4246,"ðŁĺļ":4247,"ĠGá»":4248,"ĠBáº£n":4249,"ĠBáºŃt":4250,"ĠBan":4251,"ĠBáº¥m":4252,"Äĳa":4253,"Äĳáº¹p":4254,"ÄĳÃ¡nh":4255,"ĠThi":4256,"ĠThanh":4257,"ĠThanks":4258,"á»Ļn":4259,"ĠXáº¡c":4260,"ĠPhÃ¢n":4261,"ĠRÃ¢":4262,"ĠROM":4263,"Ġex":4264,"Ġiphon":4265,"ĠDÃ¡n":4266,"Tháº¿":4267,"Thá»Ŀi":4268,"rom":4269,"thÆ°á»Ŀng":4270,"thá»Ń":4271,"Ġluot":4272,"ĠFM":4273,"ĠFb":4274,"Ġtuyáº¿n":4275,"ĠðŁĺ©":4276,"ĠðŁĺĢ":4277,"Ġthuáº§n":4278,"ĠTrc":4279,"tek":4280,"Ġcod":4281,"Ġusb":4282,"ĠYÃªu":4283,"Ġlike":4284,"Ġngá»įc":4285,"enovo":4286,"Ngoáº¡i":4287,"Trá»«":4288,"ĠIPS":4289,"ĠcÃ¢p":4290,"ĠchÃ¢m":4291,"ĠâĻ¥":4292,"ĠâĤ«":4293,"ĠphÃ¢m":4294,"ðŁ¤£":4295,"Pháº§n":4296,"Quay":4297,"ĠÄĲá»įc":4298,"ĠÄĲá»«ng":4299,"iiiii":4300,"Ġbá»ĳn":4301,"Ġcamere":4302,"ĠVinsmart":4303,"ĠNhÆ°g":4304,"ĠðŁ¤©":4305,"kkkkkkkk":4306,"quay":4307,"Ġgaming":4308,"obell":4309,"ðŁĺĤðŁĺĤðŁĺĤðŁĺĤ":4310,"ĠHihi":4311,"))))))))))))))))":4312,"<<<<":4313,"Ġlegend":4314,"ĠthÆ¡m":4315,"Ġmodem":4316,"Ġoffline":4317,"ĠðŁĺĺðŁĺĺ":4318,"ternet":4319,"Ġmjk":4320,"Ġ675":4321,"Ġâĺºï¸ı":4322,"ÃĬN":4323,"âĺĨ":4324,"Ġvá»įg":4325,"Ġmá»ĭn":4326,"Android":4327,"Ġvlog":4328,"Ġgá»ĵm":4329,"Ġbáº±g":4330,"Ġturbo":4331,"ĠMÃģY":4332,"%)":4333,"%-":4334,"%..":4335,"%).":4336,"08":4337,"290":4338,"390":4339,"45":4340,"52":4341,"855":4342,"900":4343,"?!":4344,"Ae":4345,"BH":4346,"Bá»":4347,"Ca":4348,"Cáº£":4349,"Gia":4350,"Hay":4351,"Hai":4352,"Lo":4353,"LÃłm":4354,"MB":4355,"Ns":4356,"OD":4357,"Oppo":4358,"Re":4359,"RÃ¢":4360,"RiÃªng":4361,"SB":4362,"SP":4363,"Ss":4364,"Sáº£m":4365,"UY":4366,"UÃģ":4367,"VÃ´":4368,"bg":4369,"bÃ¢y":4370,"ca":4371,"cc":4372,"ck":4373,"cl":4374,"came":4375,"coi":4376,"cÅ©ng":4377,"cá»§":4378,"dy":4379,"dung":4380,"ft":4381,"gh":4382,"gia":4383,"gap":4384,"gram":4385,"hy":4386,"jnh":4387,"lÃł":4388,"lack":4389,"like":4390,"mg":4391,"ms":4392,"mÆ¡":4393,"máº·t":4394,"moi":4395,"mÃłng":4396,"nd":4397,"nm":4398,"náº£n":4399,"od":4400,"oppo":4401,"pr":4402,"pubg":4403,"phÃŃ":4404,"ry":4405,"ráº»":4406,"rus":4407,"sac":4408,"sáº¡t":4409,"ti":4410,"tÃŃnh":4411,"tá»ĳc":4412,"tgdd":4413,"tore":4414,"ug":4415,"uá»ķi":4416,"vá»ı":4417,"wa":4418,"xt":4419,"xáº¡c":4420,"¦a":4421,"§i":4422,"¨n":4423,"¨o":4424,"¹ng":4425,"Â°":4426,"Äĳi":4427,"ĠZ":4428,"ĠhÃ¬":4429,"Ġáº¿":4430,"ĠÃ¢":4431,"ĠÃło":4432,"ĠhÃ¢n":4433,"ĠÃºp":4434,"Ġ!!!!":4435,"Ġáº»m":4436,"ģnh":4437,"Īļ":4438,"ĮI":4439,"ĳn":4440,"ĵng":4441,"Łm":4442,"á»į":4443,"á»ļ":4444,"á»£t":4445,"áºł":4446,"Ġtao":4447,"ĠtÃ¢n":4448,"ĠtáºŃt":4449,"Ġtiá»ĩt":4450,"Ġtáº¯m":4451,"ĠtÃ¡o":4452,"Ġtim":4453,"Ġtan":4454,"ĠtÃ´ng":4455,"Ġtáº¹t":4456,"Ġtáº©y":4457,"Ġtáº¡p":4458,"Ġcáº©m":4459,"ĠcuÃ´":4460,"ĠcÆ°ng":4461,"ĠcÆ°á»Ŀi":4462,"Ġcau":4463,"Ġcoo":4464,"Ġcac":4465,"Ġcáº·p":4466,"Ġcla":4467,"nhung":4468,"nhá»ı":4469,"ĠmÆ°":4470,"ĠmuÃ´":4471,"Ġmáº¿n":4472,"Ġmot":4473,"Ġmui":4474,"Ġmáº¯n":4475,"Ġmobi":4476,"ĠmÃµi":4477,"ĠmÃ©p":4478,"ĠÄĳáº¿":4479,"ĠlÆ°":4480,"Ġláº¹":4481,"ĠlÃ´i":4482,"ĠliÃª":4483,"ĠláºŃp":4484,"ĠlÄĥng":4485,"ĠlÆ°á»Ľi":4486,"ĠlÃ³a":4487,"ĠlÄ©nh":4488,"hÃª":4489,"Ġkk":4490,"ĠkÃ´":4491,"ĠkiÃªn":4492,"Ġkáº¹t":4493,"ĠvÃ¹ng":4494,"ĠvÃ²":4495,"Ġváº¥p":4496,"ĠvÃµ":4497,"Ġváº·n":4498,"ĠnhÃ´":4499,"ĠnhÃ£":4500,"Ġnháº±ng":4501,"Ġnháº±m":4502,"Ġcham":4503,"Ġchon":4504,"ĠchiÃª":4505,"ĠchÆ°á»Łng":4506,"Ġchuá»ĳi":4507,"ĠsÆ°á»Ľc":4508,"ĠsÆ°Æ¡ng":4509,"Ġsuá»ĳng":4510,"Ġsáº£y":4511,"Ġslo":4512,"Ġsony":4513,"Ġni":4514,"Ġneo":4515,"Ġhe":4516,"Ġhg":4517,"Ġhs":4518,"Ġhang":4519,"Ġháº»o":4520,"Ġháº¹n":4521,"ĠgÃ²":4522,"Ġgáº¯ng":4523,"Ġgeam":4524,"Ġthg":4525,"Ġbe":4526,"Ġbk":4527,"ĠbuÃ´n":4528,"ĠbáºŃy":4529,"ĠbÆ°á»Ľc":4530,"Ġbubg":4531,"Ġbáº©n":4532,"Ġpr":4533,"Ġpv":4534,"Ġpáº£i":4535,"Ġpit":4536,"Ġpixel":4537,"ĠrÄĥng":4538,"Ġdx":4539,"ĠdÃª":4540,"Ġdao":4541,"ĠdiÃª":4542,"Ġdat":4543,"Ġdá»ĭp":4544,"ĠtrÃ¢n":4545,"Ġngáº¥t":4546,"ĠngÃ¢m":4547,"Ġngá»ĳn":4548,"Ġtá»·":4549,"Ġtá»ĵn":4550,"ink":4551,"ĠkhÄĥ":4552,"Ġkháº¥u":4553,"Ġkhiá»ĥn":4554,"Ġmá»¥":4555,"Ġmá»«ng":4556,"hÃ´m":4557,"ĠxÃ¡":4558,"ĠxÃ¢":4559,"Ġxiu":4560,"ĠgiÃ³":4561,"Ġá»¨":4562,"Ġá»ķ":4563,"Ġá»©g":4564,"Ġphá»ĳ":4565,"ĠphÆ°á»Ľc":4566,"ĠphÃ¡p":4567,"Ġphá»ıng":4568,"ĠlÃłn":4569,"Ã¹n":4570,"Ġ1000":4571,"ĠquÃª":4572,"ĠquÄĥng":4573,"ĠquÃ£ng":4574,"Ġoi":4575,"Ġopp":4576,"Ġbá»ĭt":4577,"ĠCÃ¡":4578,"ĠCÆ¡":4579,"ĠCÃ¢":4580,"ĠCao":4581,"ĠCÃ¢n":4582,"ĠCoi":4583,"ĠCÃ¡ch":4584,"ĠCall":4585,"Ġchá»Ľ":4586,"Ġchá»©ng":4587,"Ġchá»įc":4588,"ĠquÃ¡n":4589,"Ġhá»©ng":4590,"Ġsá»§":4591,"Ġsá»įt":4592,"Ġthá»į":4593,"ĠtuÃ¢n":4594,"ĠNO":4595,"ĠNÃły":4596,"ĠNay":4597,"ĠNÃºt":4598,"ĠTP":4599,"ĠTp":4600,"ĠTá»Ľi":4601,"ĠTiáº¿ng":4602,"ĠTiáº¿p":4603,"ĠTá»īnh":4604,"ĠTÃºm":4605,"ĠMoi":4606,"ĠMic":4607,"Ġ37":4608,"Ġsale":4609,"cháº³ng":4610,"chá»§":4611,"Ġar":4612,"Ġall":4613,"Ġasus":4614,"ÃŃa":4615,"Ġthoy":4616,"...!":4617,"Ġquad":4618,"Ġnhá»©c":4619,"Ġyou":4620,"Ġgiá»±c":4621,"Ġgiá»įng":4622,"ĠÄĳÃ£i":4623,"ĠChá»Ŀ":4624,"Ġfe":4625,"Ġfr":4626,"ĠVung":4627,"ĠVÄ©nh":4628,"ÄĲT":4629,"ÄĲa":4630,"ÄĲc":4631,"ÄĲiÃª":4632,"ÄĲá»Ļ":4633,"ĠSá»":4634,"ĠSÃ¡ng":4635,"ĠSim":4636,"ĠSIM":4637,"Ġtrá»©ng":4638,"Ġkhá»ķ":4639,"Ġbá»įc":4640,"ĠÄĲi":4641,"ĠÄĲÆ¡":4642,"ĠÄĲÃ´i":4643,"ĠtoÃ¡n":4644,"ĠHd":4645,"ĠHic":4646,"ĠHá»ĵng":4647,"triá»ĩu":4648,"Ġ62":4649,"Ġ600":4650,"ĠLu":4651,"ĠLong":4652,"ĠLÃ²ng":4653,"ĠLÃĢ":4654,"ĠAsus":4655,"ĠAmoled":4656,"Ġemail":4657,"Ġ101":4658,"Ġdá»±c":4659,"Ġdá»įc":4660,"Ġdá»Ļng":4661,"Ġ74":4662,"Ġ79":4663,"Ġ790":4664,"Ġ712":4665,"ĠNháº¡c":4666,"ĠNháºŃt":4667,"Ġ800":4668,"ena":4669,"ðŁĺ¥":4670,"ðŁĺĮ":4671,"Cháº¯c":4672,"Chá»Ŀ":4673,"ĠtÃŃt":4674,"Ġviettel":4675,"Ġvirus":4676,"ĠGiao":4677,"ĠGPS":4678,"ĠBH":4679,"ĠBiáº¿t":4680,"Äĳiá»ĥm":4681,"ĠThá»ĭ":4682,"ĠThá»īnh":4683,"ĠÄĳá»ĵi":4684,"ĠXuáº¥t":4685,"ĠXuÃ¢n":4686,"ĠPH":4687,"ĠPlay":4688,"ĠRom":4689,"ĠRAM":4690,"!!!!!":4691,"Ġjo":4692,"ĠDuy":4693,"Thua":4694,"Thá»Ń":4695,"Ġza":4696,"Ġzo":4697,"Ġzay":4698,"etnam":4699,"ĠÃŃu":4700,"roup":4701,"Ġ:))))":4702,"ĠFF":4703,"ĠFps":4704,"ĠFind":4705,"Ġdien":4706,"hihi":4707,"Ġhá»Ĺn":4708,"ĠnhÃłm":4709,"ĠðŁĺİ":4710,"ĠðŁĺĴ":4711,"ĠðŁĺŃ":4712,"ĠðŁĺĨðŁĺ":4713,"Ġmaxset":4714,"ĠTrÃªn":4715,"Ġokee":4716,"Ã¡mung":4717,"ĠkÃ¬a":4718,"ĠNguyÃªn":4719,"Ġgá»Ľm":4720,"Ġhaiz":4721,"ĠPhá»¥c":4722,"ĠPháº¡m":4723,"ĠKhoáº£ng":4724,"ery":4725,"iec":4726,"ĠtÃ´n":4727,"Ġfilm":4728,"elio":4729,",,,,":4730,"Ġsams":4731,"NgÃły":4732,"pháº£n":4733,"ĠCamara":4734,"ĠCammera":4735,"ĠID":4736,"ĠItel":4737,"opro":4738,"ĠðŁĳįðŁĳį":4739,"ĠbÃ©n":4740,"ĠÃ´k":4741,"Æ°á»¡ng":4742,"Ġsettings":4743,"ĠÄĳoÃ¡n":4744,"Camara":4745,"lagship":4746,"ĠÃįt":4747,"ĠViV":4748,"ĠVideo":4749,"mpx":4750,"Ġ01":4751,"Ġ03":4752,"ï¸ıâŃĲ":4753,"ĠmÆ°Æ¡t":4754,"Phá»¥c":4755,"Quan":4756,"Ġhuwei":4757,"ĠÄĲá»©c":4758,"ĠÄĲá»£i":4759,"Ġinternet":4760,"Ġdá»Łm":4761,"Ġtruyá»ģn":4762,"Ġvolu":4763,"ĠbiÃªt":4764,"Ġbthuong":4765,"ice":4766,"Ġáº¤":4767,"ĠðŁ¤£":4768,"................................................":4769,"Ġvina":4770,"Ġvinsmart":4771,"Ġflagship":4772,"ĠUSB":4773,"ĠMiui":4774,"405":4775,"3333":4776,"vvvv":4777,"ĠmÃ¢t":4778,"ĠCHá»":4779,"****":4780,"Ġ:((((":4781,"ĠtuyÃªt":4782,"chuáº©n":4783,"ĠðŁĺįðŁĺįðŁĺį":4784,"////":4785,"Ġ.............":4786,"Ġbox":4787,"pppppppp":4788,":)))":4789,"Iá»Ĥ":4790,"á»³nh":4791,"ĠKHÃĶ":4792,"ðŁĺŃðŁĺŃðŁĺŃðŁĺŃðŁĺŃðŁĺŃðŁĺŃðŁĺŃ":4793,"Ġtele":4794,"Ġ439":4795,"~~~~~~~~":4796,"ĠChÃŃnh":4797,"ĠCá»§a":4798,"ĠMá»¹":4799,"ÃĮNH":4800,"á»Ľc":4801,"Ġkkkk":4802,"Ġghim":4803,"ĠNGON":4804,"Äĳá»«ng":4805,"chÃŃp":4806,"á»¨ng":4807,"Ġredme":4808,"lpad":4809,"ÃĤN":4810,"ĠchuyÃª":4811,"ĠPhÃŃm":4812,"Ġmessage":4813,"ðŁĩ»ðŁĩ³ðŁĩ»ðŁĩ³":4814,"Ġnhá»ĭu":4815,"Ġgrab":4816,"Ġcoolpad":4817,"Ġslow":4818,"ĠKHÃĶNG":4819,"!.":4820,"%/":4821,"+,":4822,",........":4823,"--":4824,"->":4825,".(":4826,"07":4827,"120":4828,"25":4829,"240":4830,"38":4831,"39":4832,"48":4833,"AR":4834,"Bin":4835,"BÃłn":4836,"Báº£o":4837,"Bá»Ļ":4838,"CE":4839,"Co":4840,"Cáº§n":4841,"Coi":4842,"CÃ¡m":4843,"ChÃŃ":4844,"DD":4845,"Dung":4846,"Duy":4847,"DÃłnh":4848,"Dá»ĭch":4849,"FC":4850,"Gi":4851,"Gáº§n":4852,"Good":4853,"Hao":4854,"Há»ĵi":4855,"Há»ĩ":4856,"IA":4857,"Ip":4858,"Iá»ĩ":4859,"Kiá»ĥu":4860,"LÃł":4861,"LuÃ´n":4862,"Mn":4863,"Mang":4864,"Máº·t":4865,"Mau":4866,"Máº¡ng":4867,"Mic":4868,"MUA":4869,"MAR":4870,"NÃºt":4871,"OP":4872,"PG":4873,"PT":4874,"PIN":4875,"Sh":4876,"SÃ¡ng":4877,"Sáº½":4878,"To":4879,"Tin":4880,"TÃ´":4881,"Táº£i":4882,"Tai":4883,"TÃŃnh":4884,"Test":4885,"Tá»¥t":4886,"Tá»ĳi":4887,"Tá»±":4888,"Vs":4889,"VÆ¡":4890,"Váº«n":4891,"Xáº¡c":4892,"Xiaomi":4893,"YÃªu":4894,"_-":4895,"ah":4896,"ast":4897,"be":4898,"bh":4899,"by":4900,"báº£n":4901,"ble":4902,"ber":4903,"back":4904,"ct":4905,"cau":4906,"dc":4907,"dg":4908,"dá»":4909,"day":4910,"dÃ²ng":4911,"eu":4912,"ew":4913,"era":4914,"free":4915,"facebook":4916,"ga":4917,"good":4918,"ho":4919,"hiá»ĩn":4920,"hiÃª":4921,"há»ĳi":4922,"ig":4923,"jn":4924,"kg":4925,"khÃ³":4926,"lq":4927,"lá»":4928,"lÃ¢":4929,"lite":4930,"má»Ļt":4931,"muá»ĳn":4932,"mes":4933,"má»Ŀ":4934,"mail":4935,"messenger":4936,"nÃ³":4937,"noi":4938,"nÄĥm":4939,"oÃ¡":4940,"oai":4941,"pop":4942,"qa":4943,"qÃ¡":4944,"rill":4945,"sc":4946,"se":4947,"sv":4948,"tk":4949,"tÃ¬nh":4950,"tÃ¡c":4951,"tiá»ģn":4952,"thÃ´i":4953,"toi":4954,"thÃ¢n":4955,"tiáº¿c":4956,"tiÃªng":4957,"vd":4958,"wi":4959,"yro":4960,"yout":4961,"¦NG":4962,"µi":4963,"ÃĿ":4964,"âĪļ":4965,"ĠÃ¡c":4966,"Ġuá»ĳng":4967,"Ġ................":4968,"Ġ........................":4969,"Ĥu":4970,"ĩnh":4971,"Ĳp":4972,"ĵm":4973,"ĵ¸":4974,"Ķĭ":4975,"ĶðŁ¤":4976,"ľĭ":4977,"á»µ":4978,"á»Ģ":4979,"á»ŀ":4980,"á»¦a":4981,"áº¢":4982,"áº¸":4983,"áº«ng":4984,"áº¢nh":4985,"Ġtb":4986,"Ġtua":4987,"ĠtÃ¹ng":4988,"Ġtang":4989,"Ġtáº¥n":4990,"ĠtÆ°á»Ŀng":4991,"Ġtáº£ng":4992,"ĠtÃ¡t":4993,"ĠtÆ°á»Ľng":4994,"Ġtáº¡ch":4995,"Ġtuan":4996,"ĠtÃºm":4997,"Ġtáº¥c":4998,"Ġtáº¹o":4999,"ngoáº¡i":5000,"ngroup":5001,"Ġcn":5002,"Ġct":5003,"ĠchÃ¬":5004,"Ġcáº¥t":5005,"Ġcáº¡n":5006,"ĠcÃłnh":5007,"ĠcÄĥn":5008,"Ġcáº§y":5009,"ĠcáºŃu":5010,"nháº¹":5011,"nháº¡c":5012,"nhieu":5013,"Ġmb":5014,"Ġmx":5015,"ĠmÃªn":5016,"Ġmáº¡i":5017,"Ġmao":5018,"ĠmÃ²n":5019,"ĠmÆ°á»Ŀi":5020,"ĠmÃ©t":5021,"Ġmáº£ng":5022,"ĠmÃ´ng":5023,"Ġmia":5024,"ĠmÃ³c":5025,"ĠmÃ¬n":5026,"ĠmÃ¨o":5027,"ĠmÃ©o":5028,"ĠmÃ¬h":5029,"ĠmÆ°á»Ŀn":5030,"Ġmobell":5031,"ÃłI":5032,"ĠÄĤ":5033,"ĠÄĥ":5034,"ĠÄĳam":5035,"ĠÄĳÆ¡i":5036,"ĠÄĳay":5037,"ĠÄĳÃło":5038,"ĠÄĳoi":5039,"ĠÄĳÃ¢m":5040,"ĠÄĳÃłm":5041,"ĠÄĳáº©y":5042,"Ġlem":5043,"Ġláº¡y":5044,"Ġláº·t":5045,"Ġláº¥p":5046,"Ġláº·p":5047,"ĠluÃ´ng":5048,"Ġkm":5049,"Ġkt":5050,"Ġkung":5051,"ĠkiÃª":5052,"Ġkáº»":5053,"Ġkáº»o":5054,"Ġvd":5055,"ĠvÃ¡c":5056,"ĠváºŃn":5057,"Ġvang":5058,"ĠvÆ°Æ¡ng":5059,"ĠvÆ°á»Ľng":5060,"ĠvÃ¢ng":5061,"ĠvuÃ´ng":5062,"Ġvery":5063,"Ġnháº¡i":5064,"Ġnhiá»ĩn":5065,"Ġnháº¯t":5066,"Ġnhieu":5067,"ĠchÆ¡":5068,"Ġcháº¯t":5069,"Ġchan":5070,"Ġcháº£o":5071,"Ġchinh":5072,"ĠchÄĥn":5073,"Ġcháº§y":5074,"Ġsf":5075,"ĠsÃ³":5076,"Ġsanh":5077,"ĠsÃ¢n":5078,"Ġsá»¥p":5079,"Ġsáº¥u":5080,"ĠsÃłn":5081,"Ġsá»¥c":5082,"Ġsáº·c":5083,"ĠsáºŃm":5084,"ĠsÆ°u":5085,"ĠsÃ¡g":5086,"Ġsá»¥ng":5087,"ĠsÃ¡mung":5088,"ĠnÃ¢":5089,"ĠnÃ¢u":5090,"ĠnÃ£":5091,"ĠnÆ°Æ¡":5092,"Ġnan":5093,"ĠnÃªu":5094,"Ġnáº§y":5095,"Ġnchung":5096,"ĠhÃ¡":5097,"Ġham":5098,"Ġhiá»ģn":5099,"Ġhdr":5100,"Ġhjh":5101,"Ġhnay":5102,"Ġhelio":5103,"Ġháº«ng":5104,"ĠgÃª":5105,"ĠgáºŃt":5106,"Ġgáº£m":5107,"Ġgáº¡t":5108,"ĠgÃ£y":5109,"Ġgpu":5110,"Ġgmail":5111,"Ġgyro":5112,"Ġtháº£":5113,"ĠthÃ¡y":5114,"Ġthem":5115,"ĠthÄĥ":5116,"Ġthang":5117,"ĠthÃ¡p":5118,"Ġthanks":5119,"Ġbx":5120,"ĠbÆ°":5121,"ĠbÃ³":5122,"ĠbÃ¹ng":5123,"ĠbÃ´":5124,"Ġbáº»":5125,"ĠbÄĥng":5126,"Ġbáº¡o":5127,"ĠbÃµ":5128,"Ġbluet":5129,"Ġback":5130,"áº¡I":5131,"Ġpa":5132,"Ġpb":5133,"Ġpt":5134,"Ġpay":5135,"Ġpim":5136,"ĠrÆ¡":5137,"Ġriáº¿t":5138,"Ġrinh":5139,"Ġráº¯n":5140,"Ġrest":5141,"Ġrá»ĳi":5142,"Ġrá»ĵng":5143,"Ġdr":5144,"Ġdz":5145,"Ġdáº¡":5146,"Ġdáº¿":5147,"Ġdong":5148,"Ġdiá»ĩu":5149,"ĠduyÃªn":5150,"Ġdro":5151,"Ġdáº§u":5152,"Ġdáº§y":5153,"Ġdiá»ħn":5154,"Ã¬u":5155,"Ġtro":5156,"Ġtrao":5157,"Ġtráº§m":5158,"ĠtrÃ´i":5159,"Ġtrau":5160,"ĠtrÃłng":5161,"Ġtráº»o":5162,"ĠngÃ¢n":5163,"Ġnguy":5164,"ĠnghÃ¬n":5165,"ĠngÃ´n":5166,"Ġtá»§":5167,"Ġtá»©":5168,"Ġtá»ı":5169,"Ġtá»Ľ":5170,"Ġkhg":5171,"Ġkháº£m":5172,"ĠÄĳá»©c":5173,"Ġmá»±":5174,"Ġmá»Ŀi":5175,"Ġxg":5176,"ĠxÆ°":5177,"Ġxáº¯n":5178,"Ġxac":5179,"ĠxÄĥng":5180,"ĠxuÃ´ng":5181,"Ġxáº¿p":5182,"Ġqc":5183,"ĠmÃłk":5184,"ĠgiÃ³ng":5185,"Ġgioi":5186,"ĠgiÃłnh":5187,"ĠgiÃ£m":5188,"Ġá»Ľn":5189,"Ġá»¦NG":5190,"Ġá»ĵm":5191,"á»¥m":5192,"ĠphÆ¡i":5193,"ĠphÃ¡i":5194,"Ġphá»ĳi":5195,"Ġphá»§":5196,"ĠlÃło":5197,"ĠgiÃ¡n":5198,"Ġoan":5199,"Ġoled":5200,"Ġotg":5201,"ont":5202,"iá»ģng":5203,"ĠCT":5204,"ĠCa":5205,"ĠCÃł":5206,"ĠCÃły":5207,"ĠCá»Ńa":5208,"ĠCPU":5209,"ĠCÃĵ":5210,"Ġchá»«":5211,"Ġchá»«a":5212,"Ġchá»ĳt":5213,"Ġchá»ĵng":5214,"ĠquÃ¡t":5215,"Ġokk":5216,"Ġcá»Ł":5217,"Ġcáº£n":5218,"Ġ,,,,":5219,"Ġ2000":5220,"Ġhá»ĳ":5221,"Ġhá»Ļt":5222,"Ġhá»Ľt":5223,"Ġsá»©ng":5224,"Ġsá»¯a":5225,"Ġthá»ģ":5226,"Ġthá»Ł":5227,"Ġtuc":5228,"Ġtut":5229,"Ġlá»ķ":5230,"Ġlá»ıi":5231,"Ġlá»įt":5232,"Ġlá»Ľp":5233,"Ġlá»©a":5234,"Ġlá»Łm":5235,"ĠNá»":5236,"ĠNÃło":5237,"ĠNoi":5238,"ĠNÄĥm":5239,"ĠNÃĢ":5240,"ĠNÃ£n":5241,"ĠNá»Ļi":5242,"ĠNÃĬN":5243,"ĠNFC":5244,"ĠTG":5245,"ĠTÆ°":5246,"ĠTÃ¬nh":5247,"ĠThÃ´ng":5248,"ĠTay":5249,"ĠTÃ¢n":5250,"ĠTáº¿t":5251,"ĠTáº·ng":5252,"ĠTÆ°á»Łng":5253,"ĠTá»ĳi":5254,"ĠTá»©c":5255,"ĠTá»ķng":5256,"Ìģ...":5257,"Ġnghá»ĭch":5258,"ĠMN":5259,"ĠMn":5260,"ĠMs":5261,"ĠMÆ¡":5262,"ĠMÃłng":5263,"ĠMá»©c":5264,"ĠMessenger":5265,"Ġsat":5266,"Ġchoáº¹t":5267,"Ġchoáº£nh":5268,"chay":5269,"cháº¡m":5270,"chá»ĳng":5271,"Ġal":5272,"Äĥk":5273,"Ġná»ģ":5274,"ĠkhÃ¡m":5275,"ĠkhÃ¡nh":5276,"ĠchÃ¹":5277,"ĠchÃ¨n":5278,"Ġrang":5279,"Ġradi":5280,"Ġcá»§g":5281,"uÃ´i":5282,"Ġwet":5283,"Ġnhá»¡":5284,"Ġnhá»Ł":5285,"Ġyut":5286,"Ġlan":5287,"Ġloáº¹t":5288,"Ġgiá»ıi":5289,"ĠChung":5290,"ĠCháº¡m":5291,"ĠChoi":5292,"ĠCháº¥m":5293,"ĠChuyÃªn":5294,"Ġfl":5295,"Ġfont":5296,"ĠVÃ´":5297,"ĠVÃŃ":5298,"ĠVá»Ŀi":5299,"ÄĲiÃªn":5300,"ÄĲiá»ģu":5301,"ÄĲáº¿n":5302,"ÄĲá»ĭnh":5303,"ĠSE":5304,"ĠSX":5305,"ĠSs":5306,"ĠSÆ¡n":5307,"ĠSuper":5308,"ĠSá»£":5309,"ðŁĴ":5310,"Ġtrá»ģ":5311,"Ġtrá»Ļm":5312,"Ġtá»¥i":5313,"Ġbá»ī":5314,"Ġbá»ĩnh":5315,"ĠÄĲc":5316,"ĠÄĲÃł":5317,"ĠÄĲá»©ng":5318,"ĠÄĲÃ¡p":5319,"ĠÄĲá»ĳi":5320,"ĠÄĲá»ĭnh":5321,"Ġmap":5322,"Ġmain":5323,"iphone":5324,"Ġloan":5325,"ĠHa":5326,"ĠHe":5327,"ĠHá»ĵ":5328,"ĠHÃºt":5329,"ĠHáºŃu":5330,"ĠHiá»ĩp":5331,"ĠHÃĮNH":5332,"trÃªn":5333,"trim":5334,"triÃªu":5335,"tream":5336,"Ġhot":5337,"ĠhoÄĥ":5338,"Ġ61":5339,"ĠLá»":5340,"ĠLÆ°á»£ng":5341,"ĠLÃ½":5342,"ĠLá»Ļc":5343,"ĠLag":5344,"ĠLike":5345,"ĠLTE":5346,"ĠLenovo":5347,"ane":5348,"ĠAd":5349,"ĠkhÃ¨":5350,"ĠkhÃŃch":5351,"ubi":5352,"ĠKim":5353,"ĠKÃ©m":5354,"Ġkhoe":5355,"Ġkhoong":5356,"Ġ1020":5357,"ĠÄĳá»ĭa":5358,"Ġdá»įn":5359,"Ġdá»±a":5360,"Ġ71":5361,"Ġ77":5362,"Ġ765":5363,"ĠNha":5364,"ĠNhung":5365,"ĠNhiá»ĩt":5366,"Ġ83":5367,"Ġ86":5368,"Ġ87":5369,"Ġ88":5370,"Ġ865":5371,"otube":5372,"ðŁĺ¢":5373,"ðŁĺİ":5374,"ðŁĺı":5375,"ðŁĺĲ":5376,"ðŁĺĻ":5377,"ðŁĺŁ":5378,"ĠÄĳth":5379,"ĠchuÃ¢":5380,"Ġchuá»Ļng":5381,"Chu":5382,"Chá»ĭ":5383,"Ġview":5384,"Ġvingroup":5385,"ĠGo":5386,"gdÄĳ":5387,"ĠBB":5388,"ĠBT":5389,"ĠBÃªn":5390,"ĠBao":5391,"ĠBÃ¡c":5392,"ĠBiÃªn":5393,"ĠBáº¯n":5394,"ĠBá»±c":5395,"ĠBuá»Ļc":5396,"Äĳc":5397,"Äĳiá»ģu":5398,"ÄĳÃ¢y":5399,"ÄĳÃºng":5400,"ĠhÃŃ":5401,"ĠhÃŃt":5402,"ĠThu":5403,"ĠThao":5404,"ĠThÃ¡ng":5405,"ĠThÆ°á»Ŀng":5406,"ĠThoáº¡i":5407,"ĠThá»į":5408,"ĠkhÃ³c":5409,"Ġdow":5410,"Ġ92":5411,"á»Ļp":5412,"..........":5413,"Ġcá»©u":5414,"ĠPrime":5415,"ĠRá»Ľt":5416,"Quáº£ng":5417,"ooh":5418,"mat":5419,"max":5420,"Ġnhat":5421,"ĠDÃ¢n":5422,"ĠDÃ²ng":5423,"ĠDáº¡o":5424,"ĠDá»ĭch":5425,"Thanks":5426,"Ġzl":5427,"ĠzáºŃy":5428,"tha":5429,"tho":5430,"tháº¿":5431,"thá»īnh":5432,"Ġ:>":5433,"Ġthis":5434,"luc":5435,"ĠĠĠĠĠĠ":5436,"Ġluc":5437,"Ġluong":5438,"Ìĥ,":5439,"ĠFlagship":5440,"ĠFPT":5441,"Ġdis":5442,"Ġdiss":5443,"rera":5444,"megap":5445,"Ġmiu":5446,"ĠðŁĺ¡":5447,"ĠðŁĺ¢":5448,"ĠðŁĺĥ":5449,"ĠðŁĺħ":5450,"ĠðŁĺĨ":5451,"ĠðŁĺĭ":5452,"ĠðŁĺĶ":5453,"Ġrá»«ng":5454,"ðŁĳı":5455,"Nhá»Ŀ":5456,"Ã¨m":5457,"Ġand":5458,"Ġanime":5459,"Ġcolo":5460,"ĠNgÃ¢n":5461,"ĠNghÄ©":5462,"Ġulike":5463,"ĠnghÄ©a":5464,"1111":5465,"ĠYT":5466,"Ġssa":5467,"ĠPhÆ°á»Ľc":5468,"Ġsdt":5469,"ĠKho":5470,"á»©a":5471,"Ġbis":5472,"aphone":5473,"ĠtÃ´I":5474,"Ġmesenger":5475,"áº«y":5476,"ĠQR":5477,"ĠQT":5478,"ĠQUÃģ":5479,"Ġngá»¡":5480,"Ġngá»¯":5481,"kkk":5482,"Ġ.......":5483,"ĠWf":5484,"ĠthÃ¢t":5485,"Ġ-_-":5486,"Trá»Ŀi":5487,"pháº§n":5488,"phong":5489,"phcm":5490,"ĠðŁ¥":5491,"ĠðŁĵ¸":5492,"Ġseting":5493,"Ġsetup":5494,"Ġadd":5495,"Ġkhuya":5496,"Ġtien":5497,"Ġtivi":5498,"gian":5499,"quáº£":5500,"Ġhaha":5501,"ĠAntutu":5502,"Ġship":5503,"ĠÄĳoáº¡n":5504,"ĠÃģnh":5505,"ĠÃĤu":5506,"ĠQuáºŃn":5507,"ĠQuÃ©t":5508,"Ġ180":5509,"Ġ4030":5510,"khong":5511,"khoáº£ng":5512,"ock":5513,"Ġbuá»Ļc":5514,"camara":5515,"ĠViettel":5516,"ĠVietnam":5517,"ouch":5518,"Ġâľĭ":5519,"ĠchÃ³p":5520,"ĠchÃ³t":5521,"ï¸ıâĿ¤":5522,"ï¸ıâĺº":5523,"dit":5524,"ĠnhÃ¢p":5525,"ĠPUPG":5526,"ðŁ¤¨":5527,"Ġkhach":5528,"Ġwith":5529,"ĠÄĲá»§":5530,"ĠÄĲá»£t":5531,"Ġmog":5532,"Ġmode":5533,"Ġloading":5534,"ĠkÃªt":5535,"Ġtruoc":5536,"Ġmuá»Ļn":5537,"Ġ256":5538,"ĠQuan":5539,"ĠQuang":5540,"ĠExynos":5541,"ĠcÃ¡u":5542,"ĠkÃŃn":5543,"Ġbthg":5544,"Ġcá»ĳc":5545,"Ġ999":5546,"Ġ2016":5547,"Ġmail":5548,"eeee":5549,",...)":5550,"Ġláº¡I":5551,"Ġgorill":5552,"ĠGiáº£m":5553,"ĠðŁ¤Ĺ":5554,"Ġcmn":5555,"ĠnhoÃł":5556,"Ġruá»Ļt":5557,"ĠLQM":5558,"loáº¡n":5559,"Ġ=>":5560,"Ġflas":5561,"ĠHá»ĺ":5562,"ĠHá»ıi":5563,"ĠðŁĺĤðŁĺĤðŁĺĤ":5564,"Ġclan":5565,"Ġ2700":5566,"ðŁĺģðŁĺģðŁĺģðŁĺģ":5567,"video":5568,"ĠÆ¯":5569,"ĠÆł":5570,"Ġyoutubi":5571,"ĠChÃ¢u":5572,"Ġwifj":5573,"AME":5574,"ĠNHÆ¯":5575,"ðŁĺĬðŁĺĬ":5576,"ĠsÄĥc":5577,"ĠrÃ¬a":5578,"Ġxsm":5579,"ĠTTBH":5580,"ĠTTDD":5581,"Ġ4300":5582,"ĠHoáº·c":5583,"ĠðŁĳįðŁĳįðŁĳįðŁĳįðŁĳį":5584,"nnnn":5585,"Æ¯á»ļ":5586,"âĿ¤ï¸ı":5587,"ĠÄĳÆ°oc":5588,"ĠxuÃ¢":5589,"ĠChÃŃp":5590,"ĠðŁ¥°ðŁ¥°ðŁ¥°":5591,"Ġmodel":5592,"ï¸ıâĻ¥ï¸ıâĻ¥ï¸ıâĻ¥ï¸ıâĻ¥ï¸ıâĻ¥ï¸ıâĻ¥ï¸ıâĻ¥ï¸ıâĻ¥":5593,"istar":5594,"ÃĶI":5595,"Ġ;))":5596,"Ġbjo":5597,"Ġ3300":5598,"Ġfab":5599,"Ġfake":5600,"Äĳá»£i":5601,"ĠðŁĺģ.":5602,"ðŁĳĮðŁĳĮðŁĳĮðŁĳĮðŁĳĮðŁĳĮðŁĳĮðŁĳĮ":5603,"Ġcandy":5604,"Ġnuá»Ļt":5605,"Ġhonor":5606,"ĠNova":5607,"ĠSpen":5608,"ĠLoáº¡n":5609,"ĠLove":5610,"ĠBá»¯a":5611,"ĠðŁĺĳðŁĺĳðŁĺĳ":5612,"Iá»ĨT":5613,"há»ıi":5614,"áº¾T":5615,"nhÆ°g":5616,"Ġnaitrim":5617,"ĠToÃłn":5618,"ĠHuáº¿":5619,"ðŁĺĢðŁĺĢ":5620,"ĠhÃ¢y":5621,"Ġmediatek":5622,"ĠGá»įn":5623,"Ġexc":5624,"Ġlegends":5625,"Redmi":5626,"Ġmuiu":5627,"ĠÄĳáº¿m":5628,"Ġmá»¥n":5629,"ĠðŁĺĨðŁĺĨ":5630,"Ġmaxsetting":5631,"ĠViVo":5632,"ï¸ıâŃĲï¸ıâŃĲ":5633,"Ġvolum":5634,"ĠðŁ¤£ðŁ¤£":5635,"Iá»ĩn":5636,"Shop":5637,"berry":5638,"ĠsÃ³g":5639,"ĠnÃ£o":5640,"Ġtheme":5641,"Ġrestore":5642,"Ġdrop":5643,"Ġradio":5644,"Ġcolor":5645,"Ġgorilla":5646,"\".":5647,"*,":5648,",................":5649,",.....":5650,",................................":5651,".!":5652,".-":5653,".?":5654,".!!":5655,"03":5656,"06":5657,"09":5658,"13":5659,"14":5660,"190":5661,"27":5662,"200":5663,"36":5664,"41":5665,"43":5666,"53":5667,"5000":5668,"660":5669,"84":5670,":(":5671,"://":5672,"AE":5673,"AG":5674,"AO":5675,"Ap":5676,"ACE":5677,"BO":5678,"BÃªn":5679,"Báº£n":5680,"Biáº¿t":5681,"BÃ¡n":5682,"BÃ¢y":5683,"BÃºt":5684,"CÆ¡":5685,"CÃ¹ng":5686,"CÃ¢n":5687,"ChÃ¢n":5688,"Cáº¡nh":5689,"Cuá»ĳi":5690,"CPU":5691,"DS":5692,"Da":5693,"Du":5694,"DÃ¹":5695,"DÃ¡n":5696,"EN":5697,"Full":5698,"GR":5699,"Gá»įi":5700,"Galaxy":5701,"Giá»Ŀ":5702,"Ghz":5703,"Ho":5704,"Hu":5705,"Há»":5706,"HÆ¡n":5707,"Háº§u":5708,"HÃºt":5709,"Há»Ļp":5710,"ID":5711,"IF":5712,"In":5713,"Iáº¾T":5714,"KG":5715,"KM":5716,"Kg":5717,"KhÃ³":5718,"LQ":5719,"Lag":5720,"MS":5721,"Mp":5722,"Máº¥t":5723,"MÆ¡i":5724,"MÃłng":5725,"Máº¡nh":5726,"Má»©c":5727,"Mjh":5728,"MÃ¬h":5729,"NS":5730,"NÃª":5731,"Náº£n":5732,"Not":5733,"OC":5734,"OOC":5735,"PhÃ¢n":5736,"Pro":5737,"Plus":5738,"PhÃŃ":5739,"QT":5740,"QÃ¡":5741,"RO":5742,"Ra":5743,"SS":5744,"SU":5745,"Sd":5746,"Se":5747,"Sung":5748,"Sá»ĳ":5749,"SiÃªu":5750,"Sá»£":5751,"SMAR":5752,"TÆ°":5753,"TÃ¢":5754,"Toi":5755,"TGD":5756,"Tá»ĳc":5757,"Tá»©c":5758,"Tá»ķng":5759,"Tgdd":5760,"ThÃªm":5761,"TÃ¹y":5762,"VN":5763,"VÃª":5764,"Vá»Ģ":5765,"Wow":5766,"XH":5767,"Xa":5768,"_^":5769,"ak":5770,"app":5771,"achu":5772,"bon":5773,"biáº¿t":5774,"bÃłn":5775,"buá»ĵn":5776,"bat":5777,"bá»±c":5778,"bá»ı":5779,"bá»ķ":5780,"bÃ¹n":5781,"cn":5782,"cu":5783,"cÃ¹ng":5784,"cÃ¢u":5785,"cáº§n":5786,"cra":5787,"cai":5788,"cÃ¢y":5789,"chÃ¢n":5790,"cÃ´ng":5791,"cÅ©":5792,"dÃ²":5793,"diá»ĩn":5794,"dÃ¢y":5795,"dÃłnh":5796,"dat":5797,"dá»±":5798,"eg":5799,"ell":5800,"egioididong":5801,"ff":5802,"fl":5803,"fu":5804,"fy":5805,"fan":5806,"face":5807,"gp":5808,"ges":5809,"giao":5810,"ghi":5811,"gÃ³c":5812,"ghz":5813,"ghÃ©t":5814,"hÃłi":5815,"háº¿t":5816,"hip":5817,"hoi":5818,"háº§u":5819,"há»ĩ":5820,"ib":5821,"ir":5822,"iet":5823,"ist":5824,"iver":5825,"jj":5826,"jp":5827,"kiá»ĥm":5828,"kinh":5829,"kiá»ĥu":5830,"kÃªu":5831,"kill":5832,"ld":5833,"láº¥y":5834,"lob":5835,"lá»Ŀi":5836,"lá»¡":5837,"lcom":5838,"mk":5839,"mn":5840,"mt":5841,"mai":5842,"mot":5843,"mjh":5844,"mess":5845,"nc":5846,"nng":5847,"nÃª":5848,"nÃ³ng":5849,"nÄĳ":5850,"oj":5851,"onh":5852,"oay":5853,"ort":5854,"pl":5855,"per":5856,"pupg":5857,"ru":5858,"ron":5859,"rung":5860,"rra":5861,"rá»ĵi":5862,"rro":5863,"rme":5864,"rÃµ":5865,"rco":5866,"sy":5867,"sang":5868,"san":5869,"sáº½":5870,"samsung":5871,"sit":5872,"to":5873,"tÆ°":5874,"táº£i":5875,"táºŃn":5876,"tiÃª":5877,"tÆ°Æ¡ng":5878,"test":5879,"tps":5880,"tá»¥t":5881,"tik":5882,"tá»©c":5883,"tá»ķng":5884,"thÃ¢":5885,"tks":5886,"tÃ¹y":5887,"tgdÄĳ":5888,"uf":5889,"ur":5890,"uro":5891,"ure":5892,"vu":5893,"vÃª":5894,"vÃ¢":5895,"viÃªn":5896,"viá»ģn":5897,"váº¥n":5898,"van":5899,"vat":5900,"vnÄĳ":5901,"way":5902,"wai":5903,"xa":5904,"xanh":5905,"xai":5906,"xá»Ń":5907,"xá»©ng":5908,"xÃ³a":5909,"ya":5910,"yt":5911,"za":5912,"zl":5913,"|)":5914,"£m":5915,"£ðŁĺ£":5916,"¤P":5917,"¤ðŁ¤":5918,"¦U":5919,"§y":5920,"©o":5921,"©á»Ľc":5922,"«y":5923,"®ðŁ¤":5924,"¯g":5925,"³i":5926,"³p":5927,"¹ï¸ı":5928,"Ãĥ":5929,"ÃĴ":5930,"Ãļ":5931,"Ã©ng":5932,"Ãįt":5933,"âĻ¥":5934,"ĊĠ":5935,"ĊĠĠ":5936,"ĊĠĠĠĠĠĠĠĠ":5937,"Ġ#":5938,"Ġ[":5939,"ĠÃ¬":5940,"Ġao":5941,"Ġáº©m":5942,"Ġ00":5943,"ĠÆ°á»Ľc":5944,"ĠÃ³i":5945,"Ġeo":5946,"ĠÃ³ng":5947,"Ġ))":5948,"ĠÃłnh":5949,"Ġiáº¿u":5950,"ĠÃ³a":5951,"Ġ%,":5952,"ĠUI":5953,"ĠÃºa":5954,"Ġ****":5955,"ĨT":5956,"Īn":5957,"ım":5958,"ı»":5959,"ĲI":5960,"ĶI":5961,"Ńi":5962,"Ńng":5963,"á»¹":5964,"á»Į":5965,"á»įng":5966,"á»ıi":5967,"á»įc":5968,"á»ĨT":5969,"áºª":5970,"áº¬":5971,"áº¼":5972,"áº¦U":5973,"Ġtk":5974,"Ġtl":5975,"Ġtq":5976,"ĠtÃ¡":5977,"ĠtÆ¡i":5978,"ĠtÆ°á»£t":5979,"ĠtÃº":5980,"ĠtÃ©t":5981,"Ġten":5982,"Ġtáº¯n":5983,"Ġtac":5984,"ĠtÃºng":5985,"ĠtÃºt":5986,"ĠtÃ¨":5987,"ĠtÃ²i":5988,"ĠtÃ³c":5989,"ĠtÃ¡m":5990,"ĠtÆ°á»Ł":5991,"Ġtie":5992,"ĠtÃ¨o":5993,"Ġtieng":5994,"Ġtphcm":5995,"Ġtgian":5996,"ngÆ°á»Ŀi":5997,"ngá»ĳn":5998,"nghÄ©":5999,"Ġcc":6000,"Ġcay":6001,"ĠcÃ²":6002,"ĠcÆ°a":6003,"ĠcÃ´i":6004,"ĠcÃ¡n":6005,"ĠcÆ°á»Ŀ":6006,"Ġcui":6007,"Ġcoa":6008,"ĠcÆ°á»Ľi":6009,"ĠcÃºi":6010,"Ġcáº¯p":6011,"Ġcáº±m":6012,"nha":6013,"nhÃ¢":6014,"nhiá»ĩt":6015,"nháº¯n":6016,"nhÃ¬u":6017,"ĠmÃ³":6018,"Ġmáº£i":6019,"Ġmem":6020,"ĠmÃŃ":6021,"ĠmÃ³i":6022,"ĠmÃªm":6023,"ĠmÃ¨":6024,"Ġmáº¡ch":6025,"ĠmÃ³p":6026,"Ġmob":6027,"Ġmood":6028,"Ġmom":6029,"ĠmgiÃ¡":6030,"Ġmáº·n":6031,"Ġmiá»ģm":6032,"Ġmáº£nh":6033,"ĠÄĳv":6034,"ĠÄĳua":6035,"ĠÄĳÃªn":6036,"ĠÄĳao":6037,"ĠÄĳanh":6038,"ĠÄĳáº£n":6039,"ĠÄĳÃº":6040,"ĠÄĳan":6041,"ĠÄĳÄ©":6042,"ĠÄĳÃ¡m":6043,"ĠÄĳiá»ĥn":6044,"ĠÄĳáº¯ng":6045,"ĠÄĳáºŃu":6046,"ĠÄĳIá»ĩn":6047,"Ġlg":6048,"Ġls":6049,"ĠlÃ¡y":6050,"Ġliá»ģu":6051,"Ġláº¯t":6052,"ĠlÆ°á»Ľc":6053,"Ġlip":6054,"Ġleo":6055,"ĠlÃ³ng":6056,"ĠlÃ¢y":6057,"Ġlui":6058,"ĠliÃªu":6059,"Ġláº·ng":6060,"ĠlÃ´ng":6061,"Ġláº¡t":6062,"ĠlÃ¨":6063,"Ġline":6064,"ĠlÃºa":6065,"ĠlÃºn":6066,"ĠlÃ£ng":6067,"ĠlÃ¹m":6068,"Ġlenovo":6069,"Ġlink":6070,"Ġltps":6071,"hÃºc":6072,"Ġkb":6073,"Ġkr":6074,"ĠkÃ¬nh":6075,"ĠkÃ©t":6076,"ĠkhÃ´i":6077,"Ġkiu":6078,"Ġkar":6079,"Ġkáº¹o":6080,"Ġkkkkkkkkk":6081,"Ġváº£":6082,"Ġváº¥t":6083,"Ġvung":6084,"Ġvong":6085,"ĠvÃ£":6086,"ĠvÃ©":6087,"ĠvÆ°á»£ng":6088,"ĠvÃ³i":6089,"ĠvÃ¡t":6090,"ĠvÄĳ":6091,"Ġváº¯n":6092,"ĠvÃ¨":6093,"Ġváº¯ng":6094,"ĠvÅ©ng":6095,"ĠvÃ£n":6096,"ĠvÄ©nh":6097,"Ġváº¹n":6098,"Ġvooc":6099,"ĠnhÆ¡":6100,"Ġnhem":6101,"ĠnhÃ¡i":6102,"Ġnhiáº¿t":6103,"Ġnháº½":6104,"ĠnhÃ¢y":6105,"Ġnhá»ĭn":6106,"ĠnhÃ´m":6107,"Ġnháº©y":6108,"ĠnhÃ£y":6109,"ĠchÃły":6110,"Ġchanh":6111,"Ġcháº§n":6112,"Ġcháº£i":6113,"ĠchÃło":6114,"ĠchÆ°á»Ľc":6115,"Ġchim":6116,"Ġchau":6117,"Ġcháº£y":6118,"Ġchuá»ĳt":6119,"Ġchrom":6120,"Ġsv":6121,"Ġsáº¡":6122,"Ġsáº£":6123,"ĠsÃ¬":6124,"ĠsÃ¢":6125,"ĠsÃ¡c":6126,"ĠsÆ°ng":6127,"ĠsÃ©t":6128,"Ġsoi":6129,"Ġssung":6130,"ĠsÃłng":6131,"ĠsÃ´ng":6132,"ĠsÃłnh":6133,"ĠsÃºt":6134,"ĠsÄĥn":6135,"Ġser":6136,"Ġsiu":6137,"ĠsÃ£n":6138,"ĠsÆ°á»Ŀn":6139,"ĠsÃ¡u":6140,"Ġsms":6141,"Ġstore":6142,"ĠsÃłI":6143,"Ġskill":6144,"Ġny":6145,"ĠnÆ¡":6146,"Ġnáº¥t":6147,"ĠnÃłi":6148,"ĠnÃłm":6149,"Ġnáº»o":6150,"Ġnáº¡p":6151,"ĠnÃ£y":6152,"Ġnice":6153,"Ġhp":6154,"Ġhz":6155,"Ġhá»¥":6156,"ĠhÆ°Æ¡ng":6157,"Ġhuá»ĳng":6158,"Ġháº¡ch":6159,"Ġháº¡nh":6160,"Ġhá»ĭn":6161,"ĠháºŃu":6162,"Ġhsau":6163,"Ġháºµn":6164,"Ġhá»ĭnh":6165,"Ġhqa":6166,"ĠgÆ¡":6167,"ĠgÃ¢n":6168,"ĠgÃ¡nh":6169,"Ġgoi":6170,"ĠgÄĳ":6171,"ĠgÃłng":6172,"Ġgá»ī":6173,"Ġgps":6174,"Ġgla":6175,"Ġgom":6176,"Ġgane":6177,"Ġthj":6178,"Ġtháº¥u":6179,"ĠthÃ¡n":6180,"ĠtháºŃp":6181,"Ġtháº¡nh":6182,"Ġthat":6183,"Ġthank":6184,"Ġthuyáº¿t":6185,"Ġbáº§m":6186,"ĠbÃ¡i":6187,"ĠbuÃ´":6188,"ĠbÃ¡nh":6189,"ĠbÃ´ng":6190,"Ġbalo":6191,"Ġbook":6192,"Ġbgi":6193,"Ġbla":6194,"Ġbom":6195,"Ġbáº«y":6196,"Ġpj":6197,"Ġpá»ĭ":6198,"Ġpai":6199,"Ġpen":6200,"Ġpes":6201,"Ġpig":6202,"Æ°á»Łi":6203,"Ġrv":6204,"Ġráº¥":6205,"Ġráº£":6206,"ĠrÃ¹ng":6207,"ĠrÃ¢n":6208,"ĠrÆ°á»£t":6209,"Ġrem":6210,"Ġráº¯c":6211,"ĠrÃ¡n":6212,"Ġren":6213,"ĠrÃªm":6214,"Ġrui":6215,"ĠrÃłnh":6216,"Ġrá»Ńa":6217,"Ġrieng":6218,"Ġds":6219,"Ġdáº¥t":6220,"ĠdÆ¡n":6221,"Ġdá»ĵ":6222,"Ġdiá»ĩt":6223,"Ġdáº¯t":6224,"Ġdoi":6225,"Ġdáº¥p":6226,"Ġdáº«u":6227,"Ġdá»ĳi":6228,"Ġdáº»o":6229,"hÃ¬m":6230,"Æ¡t":6231,"Ġtrg":6232,"ĠtrÆ°":6233,"Ġtráº¡i":6234,"ĠtrÆ°á»Ľt":6235,"Ġtroi":6236,"ĠtrÃªm":6237,"Ġtráº§u":6238,"ĠtrÃºng":6239,"ĠtrÃ³t":6240,"Ġngt":6241,"ĠngÆ¡":6242,"ĠngÃ¡y":6243,"ĠngÃłn":6244,"ĠngÆ°ng":6245,"ĠngÃ¡n":6246,"ĠngÃ¡o":6247,"Ġngá»Ļ":6248,"Ġngáº§u":6249,"Ġngkh":6250,"ĠngÆ°á»¡ng":6251,"Ġtá»Ŀ":6252,"Ġkhj":6253,"ĠkhÆ°":6254,"Ġkhai":6255,"Ġkhac":6256,"Ġkháº³ng":6257,"ĠÄĳá»ĩ":6258,"ĠÄĳá»±ng":6259,"ĠÄĳá»ĳt":6260,"Ġvá»ĥ":6261,"Ġvá»ĳi":6262,"Ġvá»±a":6263,"Ġvá»Ľt":6264,"Ġvá»ĩt":6265,"Ġvá»ĳn":6266,"áºŃc":6267,"Ġmá»ı":6268,"Ġmá»Ļ":6269,"amer":6270,"Ġxr":6271,"ĠxÃł":6272,"Ġxáº¿":6273,"Ġxáº£i":6274,"Ġxim":6275,"ĠxÆ°á»Ľt":6276,"Ġxá»ī":6277,"ĠxÃ¡m":6278,"ĠxÃłm":6279,"Ġxáº©y":6280,"ĠxÃ©o":6281,"ĠxuÃ´i":6282,"Ġxá»įc":6283,"Ġqq":6284,"ĠmÃłi":6285,"Ġgio":6286,"ĠgiÃ´":6287,"ĠgiáºŃn":6288,"ĠgiÆ°á»Ŀng":6289,"Ġgiac":6290,"Ġgiuá»Ļc":6291,"ĠgiÃ¹m":6292,"Ġá»ķng":6293,"Ġá»§i":6294,"Ġá»Ĳp":6295,"á»¥i":6296,"Ġpháº£":6297,"Ġpham":6298,"ĠphÆ°á»Ŀng":6299,"Ġpháº©n":6300,"Ġpháº³ng":6301,"Ġphá»ĳt":6302,"Ġpinn":6303,"ĠlÃłng":6304,"Ġ190":6305,"áº¯k":6306,"ĠcÃ³c":6307,"ĠquÃ½":6308,"Ġquáº¡o":6309,"Ġquá»³nh":6310,"á»ĭc":6311,"Ġgamer":6312,"aoke":6313,"Ġop":6314,"Ġoai":6315,"Ġoce":6316,"ĠnÃ³g":6317,"onon":6318,"ĠCáº£":6319,"ĠCÃ¢u":6320,"ĠCáº¯m":6321,"ĠChÃ¢n":6322,"ĠCá»Ļng":6323,"ĠCuá»ĳi":6324,"ĠCOD":6325,"Ġchá»Ľi":6326,"Ġchá»įi":6327,"Ġchá»ĳi":6328,"ĠÄĳáº¹ppppppppp":6329,"ĠquÃ¡nh":6330,"Ġokay":6331,"Ġokok":6332,"Ġokkk":6333,"Ġcá»±":6334,"Ġcá»įng":6335,"Ġcáº£o":6336,"Ġ,.":6337,"Ġ,...":6338,"Ġ,,,":6339,"Ġ250":6340,"Ġ2500":6341,"Ġ2990":6342,"Ġhá»Łi":6343,"Ġhá»ķng":6344,"Ġsá»£i":6345,"Ġthá»±":6346,"Ġthá»ī":6347,"Ġthá»ķi":6348,"rand":6349,"Ġtuá»ĩ":6350,"Ġlá»ĳ":6351,"Ġlá»Ļt":6352,"Ġlá»Ļi":6353,"Ġlá»Ńa":6354,"ĠNc":6355,"ĠNi":6356,"ĠNs":6357,"ĠNÃª":6358,"ĠNá»ĳt":6359,"ĠNÃ¢ng":6360,"ĠNvi":6361,"ĠNAM":6362,"ĠNáº¾":6363,"ĠNáºµng":6364,"ĠNcl":6365,"ĠTV":6366,"ĠTu":6367,"ĠTiÃªn":6368,"ĠTiáº¿t":6369,"ĠTai":6370,"ĠTÃ¡o":6371,"ĠTiáº¿n":6372,"ĠThÃ¢n":6373,"ĠTÃºi":6374,"ĠTáº¡o":6375,"ĠThÃŃ":6376,"ĠTÃ¹y":6377,"ĠTAY":6378,"ĠTÃĶI":6379,"áº·g":6380,"Ġdá»¥g":6381,"ĠkhiÃªm":6382,"Ìģ!":6383,"ĠnghiÃªn":6384,"Ġnghiáº¿n":6385,"ĠMH":6386,"ĠMT":6387,"ĠMk":6388,"ĠMÃły":6389,"ĠMÃ£":6390,"ĠMáº¯t":6391,"ĠMai":6392,"ĠMal":6393,"ĠMÃ£i":6394,"ĠMáº¡nh":6395,"ĠMobi":6396,"ĠMik":6397,"ĠMÆ°á»£n":6398,"ĠMus":6399,"ĠMÃºn":6400,"ĠMÃ¬h":6401,"ĠMedia":6402,"ĠMobell":6403,"ĠMXH":6404,"Ġ3990":6405,"Ġ360":6406,"Ġsan":6407,"Ġsach":6408,"Ġchorme":6409,"chs":6410,"cháº£":6411,"cháº¿":6412,"chiÃª":6413,"cháº¥p":6414,"chup":6415,"chiec":6416,"Ġat":6417,"Ġart":6418,"Ġass":6419,"Ġahihi":6420,"Ġ41":6421,"Ġ49":6422,"Ġ416":6423,"Äĥt":6424,"Ġná»Ľi":6425,"ÌĢ,":6426,"ĠchÃ£":6427,"Ġváº«y":6428,"Ġthoáº£":6429,"Ġthoáº£n":6430,"Ġthoáº¡t":6431,"Ġthoáº¡I":6432,"Ġrata":6433,"ĠhÃłn":6434,"ĠthÃ³i":6435,"Ġ58":6436,"Ġ590":6437,"Ġ5990":6438,"Ġ5690":6439,"Ã©c":6440,"Ã©n":6441,"Ġwe":6442,"Ġwfi":6443,"Ġwai":6444,"Ġwat":6445,"Ġwor":6446,"Ġnhá»©":6447,"Ġnhá»į":6448,"Ġnhá»¯g":6449,"Ġyotube":6450,"Ġlab":6451,"Ġlol":6452,"ĠloÃ¡":6453,"Ġloang":6454,"ĠloÃ¡t":6455,"ĠloÃ¨":6456,"Ġlove":6457,"Ġgiá»ĳ":6458,"Ġgiá»Ŀi":6459,"ĠphÃ¨o":6460,"Ġnghen":6461,"ĠChs":6462,"ĠCháºŃm":6463,"ĠCháº¥p":6464,"ĠChÃ¡t":6465,"ĠChiáº¿c":6466,"ĠChá»ķi":6467,"ĠCháº³ng":6468,"ĠChá»ĳt":6469,"ĠChá»§":6470,"ĠChina":6471,"ĠVa":6472,"ĠViá»ģn":6473,"ĠVoi":6474,"ĠVÃĢ":6475,"ĠVÃĮ":6476,"ĠVÃĤN":6477,"ĠVIá»ĨT":6478,"ĠVOOC":6479,"ÄĲáº£":6480,"ÄĲÃ¡p":6481,"ÄĲáº³ng":6482,"ÄĲien":6483,"ÄĲá»Ļi":6484,"ĠSung":6485,"ĠSang":6486,"ĠSiÃªu":6487,"ĠSáº¡t":6488,"ĠSÃ¡ch":6489,"ĠSAM":6490,"ĠStore":6491,"ĠSáº¼":6492,"ðŁı»":6493,"Ġtrá»ĥ":6494,"Ġtrá»ı":6495,"Ġtrá»įn":6496,"Ġtrá»«ng":6497,"Ġmáº¡g":6498,"Ġkhá»ī":6499,"Ġkhá»ķi":6500,"Ġkhá»±a":6501,"Ġbá»¡":6502,"Ġbá»«ng":6503,"ĠÄĲá»ĵ":6504,"ĠÄĲiá»ģu":6505,"ĠÄĲÆ°Æ¡":6506,"ĠÄĲÃªm":6507,"ĠÄĲáº§u":6508,"ĠÄĲÃ¨":6509,"ĠÄĲá»ĵng":6510,"ĠÄĲÃ©o":6511,"ĠÄĲIá»Ĩ":6512,"ĠÄĲIá»Ĥ":6513,"ĠÄĲáº¸":6514,"ĠÄĲáº¯k":6515,"Ġlagg":6516,"iÃªt":6517,"ĠkÃ¨":6518,"ĠkÃ½":6519,"Ġtoo":6520,"Ġtoáº¹t":6521,"Ġtool":6522,"ĠOS":6523,"ĠHk":6524,"ĠHz":6525,"ĠHÃªn":6526,"ĠHao":6527,"ĠHÄĥ":6528,"ĠHÄĲ":6529,"ĠHuy":6530,"ĠHoa":6531,"ĠkÃ©mMÃ¡y":6532,"tre":6533,"trog":6534,"Ġhom":6535,"Ġhoáº¡c":6536,"Ġ66":6537,"Ġ68":6538,"Ġ6000":6539,"Ġ6990":6540,"Ġ636":6541,"ĠLáº¥y":6542,"ĠLÆ°Æ¡":6543,"ĠLá»Ļ":6544,"ĠLá»ĭch":6545,"ĠLá»Ŀi":6546,"ĠLá»¡":6547,"ĠLAG":6548,"ant":6549,"android":6550,"ĠAD":6551,"ĠkhÃŃt":6552,"ĠkhÃ¢u":6553,"ĠkhÃµi":6554,"ĠhÃ´n":6555,"ĠKM":6556,"ĠKinh":6557,"ĠKÃŃnh":6558,"ĠKIá»Ĥ":6559,"ĠKÃ¨m":6560,"Ġkhoi":6561,"ĠkhoÃ¡i":6562,"Ġkhoang":6563,"ppe":6564,"pper":6565,"Ġáº¡k":6566,"Ġdá»©":6567,"Ġdá»Ļ":6568,"Ġdá»Ń":6569,"Ġdá»±ng":6570,"Ġdá»Ļi":6571,"Ìī.":6572,"Ġ7990":6573,"ĠNháº¯n":6574,"ĠNhá»ı":6575,"ĠÄĳien":6576,"ĠÄĳiáº¹n":6577,"Ġ82":6578,"Ġ8990":6579,"oto":6580,"ðŁĺ¡":6581,"ðŁĺ©":6582,"ðŁĺ°":6583,"ĠchÃªnh":6584,"Ġchui":6585,"Ġchuá»Ĺi":6586,"Ġsoc":6587,"Chi":6588,"Chs":6589,"ChÃło":6590,"Chá»©":6591,"Chá»ĳt":6592,"Chá»©c":6593,"inhf":6594,"ĠtÃŃp":6595,"Ġvidi":6596,"Ġvivu":6597,"ĠGb":6598,"ĠGÃ³c":6599,"ĠGÃµ":6600,"ĠGá»Ńi":6601,"ĠGPU":6602,"ĠGhÃ©t":6603,"ĠGopro":6604,"ĠGAME":6605,"ĠBU":6606,"ĠBa":6607,"ĠBb":6608,"ĠBn":6609,"ĠBÃł":6610,"ĠBáº¡c":6611,"ĠBá»ĳ":6612,"ĠBÃ¡n":6613,"ĠBáº¿n":6614,"ĠBÃºt":6615,"ĠBee":6616,"ĠBá»ķ":6617,"ĠBlack":6618,"Äĳh":6619,"ÄĳÆ¡":6620,"ÄĳÃª":6621,"ÄĳiÃªn":6622,"ÄĳÃ´i":6623,"Äĳá»Ĺi":6624,"Äĳá»©ng":6625,"ĠhÃº":6626,"ĠhÃ¹ng":6627,"ĠThay":6628,"ĠThÆ°a":6629,"ĠTháºŃm":6630,"ĠThá»Ń":6631,"ĠTháº¡nh":6632,"ĠThank":6633,"ĠkhÃ³i":6634,"Ġ91":6635,"Ġ93":6636,"Ġ94":6637,"Ġtgdt":6638,"mic":6639,"mik":6640,"Ġsá»ĳc":6641,"............":6642,"...........":6643,"..............":6644,"ĠXA":6645,"ĠXui":6646,"ĠXá»Ń":6647,"ĠXÃ³t":6648,"ĠXoÃ¡":6649,"ĠPay":6650,"ĠRoi":6651,"ĠRáº¡ch":6652,"ĠREN":6653,"QuÃł":6654,"Quáº£":6655,"QuÃ©t":6656,"Ġja":6657,"Ġjoi":6658,"Ġeu":6659,"Ġexy":6660,"Ġedg":6661,"Ġ2021":6662,"mar":6663,"Ġipx":6664,"ĠDT":6665,"ĠDu":6666,"ĠDáº§u":6667,"ĠDuty":6668,"ĠDuc":6669,"2016":6670,"Thu":6671,"Thao":6672,"ThÃ¡i":6673,"Thá»īnh":6674,"ThiÃªt":6675,"Ġzi":6676,"Ġzs":6677,"ĠzÃ¬":6678,"Ġzeno":6679,"thay":6680,"thiÃª":6681,"thiáº¿u":6682,"thank":6683,"Ġ:>>":6684,"Ġ:))))))))))))))))":6685,"Ġthing":6686,"Ġreal":6687,"Ġvideos":6688,"ĠÄĳaq":6689,"Ä©u":6690,"Ġchipp":6691,"Ġluu":6692,"Ġluon":6693,"ĠluÃ¢n":6694,"Ġic":6695,"Ġik":6696,"Ġis":6697,"Ìĥ.":6698,"ĠFE":6699,"ĠFan":6700,"ĠFHD":6701,"ĠFACE":6702,"Ġdiem":6703,"Ġdisa":6704,"Ġtuyet":6705,"redmi":6706,"Ġmiss":6707,"ĠðŁĺª":6708,"ĠðŁĺī":6709,"ĠðŁĺĻ":6710,"ĠðŁĺŁ":6711,"ĠðŁĺ£ðŁĺ£":6712,"ĠthuÃª":6713,"ĠthuÃ¢":6714,"ĠnhuáºŃn":6715,"Nhu":6716,"Nháº¡c":6717,"ĠTráº£":6718,"ĠTrÃ¬nh":6719,"ĠTrÃ¢n":6720,"ĠTráº§n":6721,"ĠTrÆ°ng":6722,"Ġanti":6723,"Ġcom":6724,"Ġcode":6725,"Ġ121":6726,"ĠkÃ¬m":6727,"Ġspace":6728,"ĠNga":6729,"ĠNge":6730,"ĠNgÃ£":6731,"Ġud":6732,"Ġun":6733,"Ġuá»ķn":6734,"Ġcat":6735,"Ġdug":6736,"Ġduo":6737,"ĠChá»īnh":6738,"ĠcÆ¡m":6739,"Ġgá»£i":6740,"Ġgá»£n":6741,"ðŁĳį.":6742,"ĠssA":6743,"Ġssm":6744,"Ġhii":6745,"Ġhien":6746,"Ġhieu":6747,"ĠxÃŃch":6748,"ĠPhiÃªn":6749,"ĠPhan":6750,"..................":6751,"ĠKha":6752,"ĠKhe":6753,"ĠKhong":6754,"ĠKháº¯c":6755,"ĠKhÃ¡nh":6756,"ĠKhÃ¡ch":6757,"ĠKhá»ıi":6758,"306":6759,"erfe":6760,"Ġgiat":6761,"Ġtag":6762,"Ġtap":6763,"Ġfullhd":6764,"Ġapps":6765,"Ġhá»įp":6766,"Ġhá»įt":6767,"Ġfit":6768,"ĠLoad":6769,"Ãµm":6770,"ĠghÃ©p":6771,"ĠghÃ³p":6772,"????":6773,"ĠĠĠĠĠĠĠĠĠ":6774,"ĠĠĠĠĠĠĠĠĠĠĠĠ":6775,"elme":6776,"hehe":6777,"ttt":6778,"ttps":6779,"ĠQuyáº¿t":6780,"ï¸ıðŁĺĤ":6781,"Ġngá»£p":6782,"Ġngá»«ng":6783,"Ġxoq":6784,"Ġlquan":6785,"ĠthÃ¢Ã½":6786,"Ġ-->":6787,"pha":6788,"phan":6789,"Khuyáº¿t":6790,"ĠIn":6791,"ĠIp":6792,"ĠðŁİ":6793,"ĠðŁĶĭ":6794,"Ġmessges":6795,"ĠÄĳeu":6796,"ĠmÃ£n":6797,"ats":6798,"Ġnog":6799,"Ġnow":6800,"ĠtiÃ©ng":6801,"Ġupdat":6802,"edback":6803,")))))":6804,"giÃ¢y":6805,"quáº£n":6806,"Ġhazz":6807,"Ġhazzz":6808,"ĠAndroi":6809,"ĠbÃ¹n":6810,"ĠÄĳoÃłn":6811,"lag":6812,"ĠÃĪn":6813,"ĠQuáº£n":6814,"ĠQuá»³nh":6815,"khung":6816,"khuÃ´n":6817,"khá»Łi":6818,"zzzzz":6819,"Ġ3200":6820,"Ġ3290":6821,"Ġhdh":6822,"Ġ:)).":6823,"enge":6824,"Ġ04":6825,"Ġ05":6826,"Ġ07":6827,"Ġ090":6828,"iá»ħm":6829,"Ġ146":6830,"(((":6831,"Ġ\"\"":6832,"ðŁ¤Ĵ":6833,"ðŁ¤Ĺ":6834,"ĠnhÃ²a":6835,"Ġthá»§y":6836,"ĠReview":6837,"ĠtÃ¢t":6838,"Ġhuyá»ģn":6839,"ĠÄĲá»ĶI":6840,"Ġins":6841,"Ġcheck":6842,"ĠvÃ¢á»µ":6843,"Ġtruá»Ľc":6844,"ĠOke":6845,"Ġmus":6846,"Ġmuon":6847,"Ġmuá»£t":6848,"ĠEM":6849,"Ġacc":6850,"ðŁĺģ.":6851,"ĠÄĳuá»£":6852,"Ġ2015":6853,"Ġsefi":6854,"Ġsexy":6855,"ĠMarco":6856,"ĠVinmart":6857,"ĠVinID":6858,"Ġphuc":6859,"Ġlá»ĩnh":6860,"Ġáºł":6861,"Ġgold":6862,"ĠGian":6863,"ĠðŁ¤ĶðŁ¤":6864,"Ġcmr":6865,"Ġblack":6866,"Ġváº©y":6867,".........................................":6868,"Ġvinaphone":6869,"age":6870,"ĠUp":6871,"ĠUá»ķng":6872,"ĠMih":6873,"kkkkkk":6874,"ÃģNG":6875,"ĠHá»į":6876,"ĠHá»Ĺ":6877,"ĠHá»£p":6878,"ĠHá»įc":6879,"ĠAppel":6880,"333":6881,"tuyÃª":6882,"ÃĢI":6883,"ÃĢN":6884,"ĠTHáº¤":6885,"ĠTHá»¨":6886,"ĠTHAY":6887,"áº¤n":6888,"Ġkill":6889,"Ġnguyá»ħn":6890,"Ġ285":6891,"ĠFile":6892,"))))))))))":6893,"Ġblutot":6894,"Ġblutood":6895,"Oki":6896,"vid":6897,"vivo":6898,"Ġ^_^":6899,"ĠhÆ¡p":6900,"Ġgeme":6901,"ðŁ¥°ðŁ¥°ðŁ¥°":6902,"ðŁ¥°ðŁ¥°ðŁ¥°ðŁ¥°":6903,"Ġ.........":6904,"Ġ...........":6905,"pppppp":6906,"Ġ9610":6907,"Ġ9611":6908,"ĠâĿ¤âĿ¤":6909,"arena":6910,"Ġnext":6911,"ĠxÃ¬u":6912,"ĠNHáºł":6913,"Ġnghiem":6914,"Ġsum":6915,"Ġsupper":6916,"Ġhuyáº¿t":6917,"Ġdell":6918,"ĠKHI":6919,"ĠhÃ²i":6920,"PUBG":6921,"xxx":6922,"xxxx":6923,"Ġngtak":6924,"ĠSamSung":6925,"ĠHoÃł":6926,"ĠHoÃłn":6927,"ĠDá»Ħ":6928,"..........................":6929,"mayxanh":6930,"Ġttdd":6931,"Ġnhiet":6932,"Ġnhiáº¹t":6933,"ĠbÃ¢t":6934,"ĠMá»ĮI":6935,"Ġrank":6936,"Ġhaizzzzzzz":6937,"ĠðŁ¥°.":6938,"Ġmega":6939,"ĠmÃ¡u":6940,"Ġgháº¿":6941,"Ġ3340":6942,"ĠðŁĺģðŁĺģðŁĺģ":6943,"NhÆ°g":6944,"!!!!!!!!!!!!":6945,"ðŁ¤ªðŁ¤ªðŁ¤ª":6946,"999":6947,"cover":6948,"chÃŃnh":6949,"ĨðŁĺĨðŁĺ":6950,"Ġmjnh":6951,"ĠÄĳÃ¡h":6952,"ĠbÃªnh":6953,"Ġdá»ĭu":6954,"ĠdÃ²g":6955,"Ġ2900":6956,"Ġlá»Ļn":6957,"Ġ5590":6958,"ĠHaizzz":6959,"ĠBá»ģn":6960,"ĠðŁĺĳðŁĺĳ":6961,"ĠðŁĻĤ":6962,"ĠðŁĻĦ":6963,"ĠðŁĻĨ":6964,"Ġâĺºï¸ıâĺº":6965,"Iá»ĨU":6966,"há»Ĺ":6967,"lpus":6968,"spen":6969,"uuuu":6970,"ĠðŁĳĮ.":6971,"ĠcÃ¹g":6972,"ĠlÃªnh":6973,"ĠchÄĥc":6974,"Ġchuyen":6975,"Ġdthoai":6976,"ĠTá»Ĩ":6977,"ĠTá»«ng":6978,"Ġ3600":6979,"ĠHuyá»ģn":6980,"ðŁĺħðŁĺħ":6981,"thich":6982,"ĠðŁĺĬðŁĺĬ":6983,"ĠðŁĴ¯":6984,"22222222":6985,"tttttttttttttttttttttttttttttttt":6986,"âĢ¢":6987,"âĢĻ":6988,"ĠlÃ²e":6989,"ĠrÃ²y":6990,"Ġdemo":6991,"Ġ3400":6992,"Ġwjfi":6993,"ðŁĺªðŁĺª":6994,"ðŁĺļðŁĺļ":6995,"ĠGá»ĮI":6996,"Ġexel":6997,"Ġiphons":6998,"ĠâĻ¥ï¸ı":6999,"ðŁĺĤðŁĺĤðŁĺĤðŁĺĤðŁĺĤðŁĺĤðŁĺĤðŁĺĤ":7000,"<<<<<<<<":7001,"Bá»¯a":7002,"Bá»ģn":7003,"Loáº¡n":7004,"UYá»ĨT":7005,"ght":7006,"jnhf":7007,"prim":7008,"áºłI":7009,"Ġclash":7010,"Ġclass":7011,"Ġmotion":7012,"Ġmobiistar":7013,"Ġbeat":7014,"Ġá»¨NG":7015,"Ġá»ķm":7016,"ĠNOTE":7017,"Ġfeedback":7018,"Ġfri":7019,"Ġfrie":7020,"ĠSá»¬":7021,"ĠSá»°":7022,"ðŁĺĮðŁĺĮ":7023,"Ġ:))))))":7024,"Ġdienmayxanh":7025,"Ġsamsum":7026,"Ġhuweil":7027,"Ġáº¤n":7028,"ĠCHá»Ī":7029,"ĠCHá»¤P":7030,"ChÃŃp":7031,"Giáº£i":7032,"bye":7033,"dá»ħ":7034,"hoáº·c":7035,"lá»Ľn":7036,"youtu":7037,"âĪļâĪļ":7038,"áº¢N":7039,"Ġcty":7040,"Ġmxh":7041,"ĠÄĤn":7042,"ĠÄĥng":7043,"ĠkiÃªm":7044,"Ġhjhj":7045,"Ġbluetooh":7046,"Ġdrive":7047,"Ġdzay":7048,"ĠCTKM":7049,"ĠNá»¯":7050,"ĠNÃĢY":7051,"ĠTGÄĲ":7052,"ĠHazzz":7053,"ðŁĺ¢ðŁĺ¢":7054,"ðŁĺıðŁĺı":7055,"ðŁĺĻðŁĺĻ":7056,"Ġdown":7057,"thoáº£i":7058,"megapixel":7059,"ðŁĳıðŁĳı":7060,"ĠQTV":7061,"ĠðŁ¥µ":7062,"Ġshipper":7063,"ï¸ıâĿ¤ï¸ı":7064,"Ġclans":7065,"Æ¯á»ļT":7066,"Ġfabook":7067,"Ġexcel":7068,"BOOK":7069,"Há»£p":7070,"SUNG":7071,"SMART":7072,"TGDD":7073,"flix":7074,"irin":7075,"istant":7076,"lobal":7077,"rush":7078,"urora":7079,"vatar":7080,"Ġ*****":7081,"ĠcÆ°á»Ŀg":7082,"Ġmomo":7083,"ĠÄĳÃºg":7084,"ĠÄĳÄ©a":7085,"Ġkaraoke":7086,"ĠthÃ¡nng":7087,"Ġbgio":7088,"Ġremi":7089,"Ġrenno":7090,"ĠNvien":7091,"ĠNáº¾U":7092,"ĠThÃŃt":7093,"ĠMali":7094,"ĠMediatek":7095,"Ġwaifu":7096,"Ġwatch":7097,"Ġword":7098,"ĠSAMSUNG":7099,"ĠÄĲÃ¨n":7100,"ĠÄĲIá»ĨN":7101,"ĠÄĲIá»ĤM":7102,"ĠÄĲáº¸P":7103,"ĠKIá»ĤU":7104,"Ġvidieo":7105,"ĠRENO":7106,"Ġedge":7107,"ĠFACEBOOK":7108,"erfect":7109,"ï¸ıðŁĺĤâĻ¥":7110,"Ġhazzzz":7111,"ĠReviewer":7112,"ĠÄĳuá»£c":7113,"ĠTHáº¤Y":7114,"ĠâĿ¤âĿ¤âĿ¤":7115,"ĠNHáºłY":7116}